
const unsigned char emg_moment_prediction_model_tflite[] = {
    28, 0, 0, 0, 84, 70, 76, 51, 20, 0, 32, 0, 28, 0, 24, 0, 20, 0, 16, 0, 12, 0, 0, 0, 8, 0, 4, 0, 20, 0, 0, 0, 28, 0, 0, 0, 136, 0, 0, 0, 216, 0, 0, 0, 228, 119, 1, 0, 244, 119, 1, 0, 132, 249, 1, 0, 3, 0, 0, 0, 1, 0, 0, 0, 4, 0, 0, 0, 114, 50, 254, 255, 12, 0, 0, 0, 28, 0, 0, 0, 60, 0, 0, 0, 15, 0, 0, 0, 115, 101, 114, 118, 105, 110, 103, 95, 100, 101, 102, 97, 117, 108, 116, 0, 1, 0, 0, 0, 4, 0, 0, 0, 224, 54, 254, 255, 81, 0, 0, 0, 4, 0, 0, 0, 8, 0, 0, 0, 111, 117, 116, 112, 117, 116, 95, 48, 0, 0, 0, 0, 1, 0, 0, 0, 4, 0, 0, 0, 86, 54, 254, 255, 4, 0, 0, 0, 11, 0, 0, 0, 105, 110, 112, 117, 116, 95, 108, 97, 121, 101, 114, 0, 2, 0, 0, 0, 44, 0, 0, 0, 4, 0, 0, 0, 40, 55, 254, 255, 167, 0, 0, 0, 4, 0, 0, 0, 19, 0, 0, 0, 67, 79, 78, 86, 69, 82, 83, 73, 79, 78, 95, 77, 69, 84, 65, 68, 65, 84, 65, 0, 76, 55, 254, 255, 166, 0, 0, 0, 4, 0, 0, 0, 19, 0, 0, 0, 109, 105, 110, 95, 114, 117, 110, 116, 105, 109, 101, 95, 118, 101, 114, 115, 105, 111, 110, 0, 168, 0, 0, 0, 8, 119, 1, 0, 0, 119, 1, 0, 236, 118, 1, 0, 216, 118, 1, 0, 192, 118, 1, 0, 168, 118, 1, 0, 148, 118, 1, 0, 140, 118, 1, 0, 132, 118, 1, 0, 104, 118, 1, 0, 96, 118, 1, 0, 76, 118, 1, 0, 56, 118, 1, 0, 36, 118, 1, 0, 4, 118, 1, 0, 116, 117, 1, 0, 100, 116, 1, 0, 84, 114, 1, 0, 196, 113, 1, 0, 180, 111, 1, 0, 164, 109, 1, 0, 148, 108, 1, 0, 4, 108, 1, 0, 232, 107, 1, 0, 204, 107, 1, 0, 176, 107, 1, 0, 148, 107, 1, 0, 120, 107, 1, 0, 92, 107, 1, 0, 64, 107, 1, 0, 36, 107, 1, 0, 20, 83, 1, 0, 4, 179, 0, 0, 244, 158, 0, 0, 228, 154, 0, 0, 220, 154, 0, 0, 212, 154, 0, 0, 204, 154, 0, 0, 196, 154, 0, 0, 188, 154, 0, 0, 180, 154, 0, 0, 172, 154, 0, 0, 164, 154, 0, 0, 156, 154, 0, 0, 148, 154, 0, 0, 140, 154, 0, 0, 132, 154, 0, 0, 124, 154, 0, 0, 116, 154, 0, 0, 108, 154, 0, 0, 100, 154, 0, 0, 92, 154, 0, 0, 84, 154, 0, 0, 76, 154, 0, 0, 68, 154, 0, 0, 60, 154, 0, 0, 52, 154, 0, 0, 44, 154, 0, 0, 36, 154, 0, 0, 28, 154, 0, 0, 20, 154, 0, 0, 12, 154, 0, 0, 4, 154, 0, 0, 252, 153, 0, 0, 244, 153, 0, 0, 236, 153, 0, 0, 228, 153, 0, 0, 220, 153, 0, 0, 212, 153, 0, 0, 204, 153, 0, 0, 196, 153, 0, 0, 188, 153, 0, 0, 180, 153, 0, 0, 172, 153, 0, 0, 164, 153, 0, 0, 156, 153, 0, 0, 148, 153, 0, 0, 140, 153, 0, 0, 132, 153, 0, 0, 124, 153, 0, 0, 116, 153, 0, 0, 108, 153, 0, 0, 100, 153, 0, 0, 92, 153, 0, 0, 84, 153, 0, 0, 76, 153, 0, 0, 68, 153, 0, 0, 60, 153, 0, 0, 52, 153, 0, 0, 44, 153, 0, 0, 36, 153, 0, 0, 28, 153, 0, 0, 20, 153, 0, 0, 12, 153, 0, 0, 4, 153, 0, 0, 252, 152, 0, 0, 244, 152, 0, 0, 236, 152, 0, 0, 228, 152, 0, 0, 220, 152, 0, 0, 204, 148, 0, 0, 188, 116, 0, 0, 172, 52, 0, 0, 164, 52, 0, 0, 156, 52, 0, 0, 148, 52, 0, 0, 140, 52, 0, 0, 132, 52, 0, 0, 124, 52, 0, 0, 116, 52, 0, 0, 108, 52, 0, 0, 100, 52, 0, 0, 92, 52, 0, 0, 84, 52, 0, 0, 76, 52, 0, 0, 68, 52, 0, 0, 60, 52, 0, 0, 52, 52, 0, 0, 44, 52, 0, 0, 36, 52, 0, 0, 28, 52, 0, 0, 20, 52, 0, 0, 12, 52, 0, 0, 4, 52, 0, 0, 252, 51, 0, 0, 244, 51, 0, 0, 236, 51, 0, 0, 228, 51, 0, 0, 220, 51, 0, 0, 212, 51, 0, 0, 204, 51, 0, 0, 196, 51, 0, 0, 188, 51, 0, 0, 180, 51, 0, 0, 172, 51, 0, 0, 164, 51, 0, 0, 156, 51, 0, 0, 148, 51, 0, 0, 140, 51, 0, 0, 132, 51, 0, 0, 124, 51, 0, 0, 116, 51, 0, 0, 100, 49, 0, 0, 84, 17, 0, 0, 68, 1, 0, 0, 60, 1, 0, 0, 52, 1, 0, 0, 44, 1, 0, 0, 36, 1, 0, 0, 28, 1, 0, 0, 20, 1, 0, 0, 12, 1, 0, 0, 4, 1, 0, 0, 252, 0, 0, 0, 244, 0, 0, 0, 236, 0, 0, 0, 228, 0, 0, 0, 220, 0, 0, 0, 212, 0, 0, 0, 204, 0, 0, 0, 196, 0, 0, 0, 188, 0, 0, 0, 180, 0, 0, 0, 172, 0, 0, 0, 164, 0, 0, 0, 156, 0, 0, 0, 124, 0, 0, 0, 4, 0, 0, 0, 102, 57, 254, 255, 4, 0, 0, 0, 104, 0, 0, 0, 12, 0, 0, 0, 8, 0, 14, 0, 8, 0, 4, 0, 8, 0, 0, 0, 20, 0, 0, 0, 48, 0, 0, 0, 0, 0, 10, 0, 12, 0, 8, 0, 0, 0, 7, 0, 10, 0, 0, 0, 0, 0, 0, 1, 4, 0, 0, 0, 1, 0, 0, 0, 234, 3, 0, 0, 12, 0, 24, 0, 20, 0, 16, 0, 12, 0, 4, 0, 12, 0, 0, 0, 163, 229, 71, 54, 45, 30, 184, 107, 2, 0, 0, 0, 2, 0, 0, 0, 4, 0, 0, 0, 6, 0, 0, 0, 50, 46, 49, 55, 46, 48, 0, 0, 218, 57, 254, 255, 4, 0, 0, 0, 16, 0, 0, 0, 50, 46, 49, 55, 46, 48, 0, 0, 0, 0, 0, 0, 0, 0, 0, 0, 4, 9, 254, 255, 8, 9, 254, 255, 12, 9, 254, 255, 16, 9, 254, 255, 20, 9, 254, 255, 24, 9, 254, 255, 28, 9, 254, 255, 32, 9, 254, 255, 36, 9, 254, 255, 40, 9, 254, 255, 44, 9, 254, 255, 48, 9, 254, 255, 52, 9, 254, 255, 56, 9, 254, 255, 60, 9, 254, 255, 64, 9, 254, 255, 68, 9, 254, 255, 72, 9, 254, 255, 76, 9, 254, 255, 80, 9, 254, 255, 84, 9, 254, 255, 74, 58, 254, 255, 4, 0, 0, 0, 0, 16, 0, 0, 16, 51, 170, 174, 246, 71, 129, 19, 107, 48, 24, 233, 224, 5, 27, 105, 227, 81, 21, 204, 13, 19, 34, 63, 22, 34, 14, 253, 79, 219, 246, 61, 69, 209, 47, 254, 170, 127, 188, 70, 178, 212, 41, 63, 253, 184, 104, 69, 14, 20, 166, 231, 127, 45, 181, 65, 23, 254, 209, 23, 11, 244, 247, 250, 25, 111, 246, 9, 3, 30, 175, 183, 35, 14, 240, 210, 242, 48, 184, 77, 230, 169, 11, 240, 242, 236, 47, 82, 12, 252, 222, 228, 127, 17, 65, 198, 231, 201, 236, 14, 194, 6, 137, 223, 47, 38, 177, 222, 3, 12, 161, 188, 52, 6, 216, 241, 22, 194, 47, 181, 83, 196, 205, 49, 127, 241, 239, 2, 247, 88, 37, 72, 246, 252, 23, 213, 237, 116, 249, 68, 34, 15, 167, 63, 204, 19, 37, 72, 181, 28, 127, 233, 20, 238, 163, 194, 255, 253, 245, 8, 35, 233, 251, 213, 244, 43, 236, 219, 32, 216, 183, 237, 129, 24, 216, 245, 227, 35, 81, 32, 254, 217, 19, 51, 3, 36, 247, 7, 32, 61, 44, 10, 243, 31, 54, 198, 246, 87, 166, 242, 51, 57, 250, 195, 189, 58, 251, 63, 195, 9, 14, 29, 0, 222, 203, 235, 186, 33, 240, 50, 49, 9, 127, 250, 127, 39, 75, 8, 41, 244, 39, 234, 27, 112, 247, 220, 226, 215, 211, 74, 240, 69, 235, 119, 187, 55, 66, 10, 77, 50, 208, 231, 59, 12, 10, 202, 43, 21, 38, 213, 253, 71, 245, 252, 69, 243, 166, 14, 129, 31, 204, 57, 3, 1, 13, 204, 7, 197, 48, 244, 248, 8, 239, 3, 49, 50, 73, 29, 4, 188, 144, 39, 214, 240, 140, 249, 5, 232, 244, 200, 255, 159, 1, 241, 247, 254, 157, 236, 241, 223, 26, 224, 49, 127, 69, 113, 7, 184, 215, 245, 80, 24, 45, 13, 21, 53, 242, 23, 14, 48, 0, 29, 196, 131, 249, 20, 36, 213, 78, 226, 241, 74, 67, 38, 3, 21, 183, 129, 9, 30, 197, 200, 252, 16, 30, 29, 37, 41, 248, 255, 41, 107, 17, 66, 14, 231, 186, 70, 129, 9, 231, 120, 206, 219, 79, 12, 24, 174, 17, 205, 39, 229, 248, 223, 255, 127, 223, 209, 211, 20, 252, 226, 44, 214, 208, 244, 22, 234, 179, 233, 13, 225, 50, 186, 48, 38, 229, 17, 38, 210, 17, 254, 63, 244, 54, 246, 191, 3, 6, 215, 11, 32, 233, 224, 248, 220, 2, 255, 60, 47, 30, 235, 224, 127, 236, 192, 13, 196, 250, 20, 57, 208, 249, 75, 21, 183, 235, 51, 225, 38, 89, 218, 246, 70, 236, 39, 34, 2, 249, 2, 248, 106, 228, 57, 243, 13, 25, 33, 224, 13, 36, 43, 205, 244, 27, 24, 52, 38, 127, 213, 232, 0, 243, 155, 201, 11, 196, 207, 24, 15, 207, 129, 33, 214, 154, 202, 254, 64, 203, 191, 45, 156, 12, 32, 93, 16, 3, 86, 62, 206, 187, 12, 127, 55, 192, 182, 238, 43, 206, 213, 102, 209, 11, 212, 223, 185, 245, 215, 252, 0, 194, 84, 96, 45, 231, 110, 71, 188, 29, 87, 81, 145, 215, 40, 252, 41, 112, 189, 188, 173, 228, 86, 252, 253, 205, 217, 83, 190, 206, 214, 22, 207, 242, 215, 50, 167, 183, 224, 74, 189, 248, 10, 166, 222, 19, 129, 0, 240, 181, 127, 4, 51, 181, 126, 236, 66, 250, 241, 6, 250, 13, 243, 234, 24, 248, 230, 14, 222, 76, 224, 11, 198, 49, 167, 47, 224, 61, 35, 46, 232, 173, 238, 239, 234, 11, 25, 5, 8, 244, 225, 10, 20, 248, 1, 33, 7, 0, 227, 232, 212, 0, 249, 47, 127, 32, 37, 2, 37, 50, 39, 249, 194, 192, 43, 202, 28, 185, 3, 49, 254, 1, 231, 30, 18, 51, 186, 14, 207, 185, 249, 42, 230, 205, 183, 3, 48, 240, 89, 5, 31, 165, 127, 239, 12, 175, 230, 246, 252, 116, 138, 110, 208, 225, 198, 207, 27, 220, 180, 184, 60, 28, 34, 40, 212, 121, 12, 21, 212, 103, 41, 127, 30, 6, 10, 35, 10, 221, 226, 188, 189, 250, 232, 69, 17, 229, 193, 237, 198, 157, 228, 42, 177, 2, 225, 49, 255, 243, 104, 10, 20, 106, 63, 127, 241, 21, 26, 216, 228, 220, 156, 224, 37, 239, 6, 82, 5, 234, 180, 130, 16, 25, 34, 184, 59, 7, 243, 8, 163, 205, 181, 53, 66, 246, 126, 255, 127, 4, 201, 213, 172, 236, 30, 227, 129, 210, 41, 34, 252, 195, 19, 210, 169, 190, 250, 49, 42, 2, 239, 249, 228, 211, 4, 253, 66, 18, 24, 26, 29, 243, 47, 202, 238, 229, 61, 216, 253, 239, 25, 45, 53, 222, 196, 26, 244, 52, 245, 28, 254, 198, 233, 91, 209, 50, 35, 24, 190, 235, 122, 37, 42, 180, 127, 63, 9, 33, 195, 14, 21, 176, 240, 20, 36, 50, 243, 215, 254, 48, 127, 240, 192, 185, 41, 193, 20, 31, 21, 16, 94, 40, 183, 239, 255, 8, 156, 14, 1, 213, 236, 247, 108, 178, 196, 38, 28, 208, 207, 229, 135, 188, 53, 193, 95, 17, 214, 202, 103, 127, 107, 50, 23, 2, 28, 26, 172, 245, 0, 226, 0, 35, 67, 25, 70, 129, 1, 244, 19, 228, 36, 210, 183, 77, 93, 237, 186, 8, 14, 185, 202, 44, 217, 185, 13, 204, 40, 249, 33, 242, 198, 223, 251, 236, 244, 236, 9, 215, 234, 127, 7, 217, 203, 16, 195, 208, 215, 195, 52, 236, 19, 230, 212, 28, 213, 66, 227, 50, 40, 26, 226, 12, 17, 246, 22, 56, 38, 235, 242, 233, 129, 41, 98, 13, 115, 232, 56, 194, 29, 106, 230, 124, 160, 185, 33, 62, 231, 11, 238, 172, 12, 104, 11, 93, 4, 2, 195, 224, 3, 3, 48, 129, 191, 30, 230, 233, 223, 39, 223, 27, 246, 166, 93, 215, 10, 253, 48, 80, 0, 37, 220, 45, 71, 48, 204, 245, 5, 32, 248, 129, 220, 35, 217, 156, 30, 88, 244, 12, 48, 236, 1, 251, 7, 250, 252, 252, 240, 173, 253, 75, 65, 11, 98, 98, 219, 33, 15, 22, 108, 34, 0, 46, 22, 51, 5, 248, 84, 248, 20, 70, 127, 28, 189, 41, 76, 3, 223, 218, 31, 232, 74, 189, 59, 1, 68, 34, 159, 12, 251, 236, 161, 253, 92, 53, 207, 77, 201, 88, 210, 212, 219, 235, 61, 217, 107, 64, 169, 250, 235, 190, 235, 231, 196, 164, 71, 229, 186, 135, 17, 211, 255, 127, 6, 135, 21, 197, 14, 3, 32, 244, 188, 52, 238, 6, 216, 87, 45, 215, 129, 230, 30, 200, 243, 46, 149, 33, 202, 12, 180, 245, 28, 16, 14, 190, 17, 54, 47, 79, 225, 56, 7, 95, 5, 208, 8, 8, 40, 19, 247, 34, 1, 236, 224, 13, 79, 184, 205, 40, 155, 5, 249, 148, 132, 129, 67, 52, 215, 149, 212, 232, 167, 204, 14, 74, 37, 18, 40, 15, 79, 161, 47, 36, 24, 68, 134, 79, 238, 55, 217, 130, 173, 205, 99, 208, 249, 174, 110, 127, 66, 254, 218, 127, 35, 45, 64, 14, 31, 232, 26, 48, 70, 232, 31, 35, 2, 193, 31, 229, 40, 238, 12, 5, 0, 10, 198, 243, 166, 231, 185, 29, 142, 127, 248, 74, 48, 67, 25, 42, 231, 217, 69, 53, 90, 223, 6, 46, 27, 1, 253, 17, 39, 237, 49, 40, 213, 34, 241, 209, 232, 240, 248, 81, 224, 208, 255, 79, 22, 9, 96, 251, 243, 243, 32, 53, 250, 129, 82, 68, 92, 28, 93, 39, 48, 189, 224, 252, 223, 190, 100, 13, 233, 205, 68, 235, 0, 168, 86, 10, 1, 66, 235, 34, 80, 242, 0, 253, 69, 10, 72, 7, 1, 194, 129, 36, 21, 195, 222, 227, 28, 199, 10, 213, 210, 23, 185, 252, 7, 200, 49, 108, 34, 53, 108, 219, 45, 253, 1, 16, 196, 10, 191, 234, 24, 173, 222, 254, 4, 20, 205, 196, 82, 194, 148, 217, 169, 210, 2, 19, 129, 20, 8, 58, 11, 38, 25, 45, 20, 12, 29, 60, 58, 60, 217, 27, 3, 223, 239, 34, 47, 6, 239, 246, 245, 18, 129, 206, 213, 223, 5, 254, 224, 49, 40, 89, 111, 11, 239, 85, 3, 66, 167, 244, 41, 223, 114, 26, 14, 187, 20, 54, 127, 93, 242, 243, 66, 253, 200, 7, 200, 156, 110, 254, 207, 72, 183, 70, 38, 67, 16, 107, 206, 213, 50, 74, 92, 174, 228, 33, 210, 53, 48, 52, 127, 225, 13, 79, 189, 93, 31, 196, 221, 232, 91, 47, 245, 10, 13, 38, 4, 191, 54, 228, 170, 196, 249, 32, 92, 1, 53, 16, 77, 70, 127, 201, 126, 5, 245, 52, 3, 11, 41, 237, 222, 197, 187, 53, 206, 49, 118, 247, 222, 17, 211, 70, 57, 222, 56, 252, 78, 129, 2, 213, 26, 0, 168, 68, 63, 200, 233, 39, 4, 242, 44, 187, 212, 218, 247, 99, 219, 247, 238, 37, 55, 13, 227, 56, 59, 199, 250, 39, 62, 251, 41, 74, 190, 243, 129, 86, 12, 21, 223, 198, 227, 206, 230, 248, 247, 197, 30, 27, 7, 212, 63, 127, 32, 150, 230, 12, 51, 207, 249, 23, 29, 25, 52, 29, 38, 17, 180, 29, 220, 244, 241, 7, 23, 23, 199, 180, 146, 215, 237, 26, 146, 238, 218, 22, 85, 81, 211, 255, 17, 97, 227, 153, 55, 170, 123, 212, 192, 232, 17, 75, 77, 7, 17, 127, 218, 94, 239, 140, 18, 18, 99, 87, 213, 71, 4, 28, 218, 34, 196, 29, 85, 224, 3, 234, 50, 189, 193, 221, 216, 9, 207, 30, 56, 225, 77, 214, 17, 61, 127, 21, 230, 218, 237, 77, 9, 234, 102, 71, 17, 127, 220, 108, 56, 249, 115, 17, 50, 221, 79, 63, 50, 35, 147, 241, 27, 39, 5, 19, 186, 218, 59, 16, 130, 153, 14, 226, 235, 19, 188, 135, 50, 207, 166, 36, 47, 9, 252, 11, 246, 194, 206, 10, 97, 74, 96, 64, 75, 233, 34, 25, 94, 90, 8, 127, 77, 36, 9, 42, 106, 188, 67, 73, 241, 255, 33, 94, 21, 247, 136, 52, 67, 215, 20, 9, 30, 229, 129, 71, 234, 62, 189, 227, 7, 154, 21, 76, 47, 242, 41, 44, 55, 242, 179, 1, 163, 1, 242, 59, 212, 253, 229, 23, 5, 129, 61, 236, 9, 218, 68, 26, 74, 228, 229, 228, 241, 224, 34, 173, 232, 45, 36, 76, 227, 18, 129, 222, 80, 22, 205, 47, 124, 18, 240, 13, 12, 242, 164, 195, 177, 236, 44, 182, 24, 231, 44, 253, 232, 71, 89, 43, 246, 77, 200, 193, 235, 49, 181, 253, 109, 36, 182, 235, 88, 184, 40, 33, 15, 20, 213, 0, 176, 232, 34, 137, 34, 182, 71, 57, 3, 127, 227, 0, 208, 1, 171, 158, 7, 52, 235, 30, 144, 246, 196, 245, 31, 173, 86, 229, 30, 170, 228, 41, 97, 174, 127, 54, 228, 208, 93, 126, 249, 244, 241, 122, 243, 205, 47, 243, 195, 210, 79, 219, 219, 42, 8, 14, 84, 215, 204, 11, 123, 195, 197, 13, 42, 170, 241, 7, 129, 255, 24, 165, 103, 7, 151, 62, 15, 213, 46, 51, 229, 238, 230, 93, 58, 76, 84, 14, 204, 193, 83, 193, 24, 17, 191, 30, 83, 149, 43, 231, 50, 129, 216, 68, 252, 100, 218, 246, 254, 229, 192, 230, 167, 6, 253, 196, 3, 193, 202, 204, 233, 127, 237, 229, 218, 245, 10, 199, 202, 227, 44, 4, 255, 41, 180, 13, 3, 22, 27, 32, 52, 16, 223, 42, 66, 199, 21, 43, 52, 112, 198, 107, 13, 4, 31, 60, 127, 31, 117, 92, 200, 37, 196, 113, 230, 62, 206, 214, 39, 26, 144, 203, 3, 146, 29, 30, 57, 129, 5, 245, 206, 22, 72, 6, 225, 33, 154, 17, 6, 69, 62, 100, 254, 40, 17, 19, 234, 34, 173, 240, 51, 11, 207, 52, 87, 214, 5, 247, 217, 82, 253, 50, 199, 243, 195, 158, 42, 10, 222, 20, 11, 231, 178, 248, 237, 125, 2, 247, 251, 221, 89, 228, 52, 127, 104, 26, 179, 23, 82, 16, 72, 226, 116, 235, 252, 6, 108, 40, 7, 220, 193, 19, 220, 135, 112, 88, 235, 3, 142, 96, 211, 25, 129, 41, 242, 182, 5, 6, 220, 164, 26, 66, 83, 80, 84, 251, 240, 91, 38, 0, 157, 159, 107, 191, 222, 202, 189, 69, 98, 183, 14, 157, 127, 247, 251, 219, 247, 24, 200, 31, 185, 92, 187, 72, 235, 51, 198, 108, 169, 45, 61, 107, 229, 230, 40, 22, 241, 21, 223, 127, 36, 251, 41, 212, 208, 184, 64, 53, 4, 2, 138, 227, 171, 251, 196, 193, 253, 55, 12, 4, 26, 56, 235, 16, 49, 17, 236, 16, 17, 54, 183, 206, 28, 211, 203, 242, 0, 241, 127, 244, 242, 97, 191, 15, 174, 85, 238, 7, 17, 182, 192, 127, 217, 237, 17, 198, 186, 43, 41, 253, 29, 3, 40, 8, 246, 168, 153, 193, 235, 220, 233, 10, 236, 133, 236, 206, 3, 64, 24, 157, 252, 190, 57, 28, 12, 228, 51, 240, 253, 241, 235, 199, 53, 234, 247, 1, 31, 232, 205, 23, 208, 37, 200, 248, 73, 213, 129, 222, 212, 33, 53, 28, 31, 49, 161, 14, 60, 68, 250, 236, 215, 41, 148, 121, 209, 255, 197, 199, 45, 82, 28, 24, 27, 49, 36, 200, 211, 86, 3, 106, 240, 37, 57, 129, 226, 239, 3, 233, 198, 182, 146, 231, 201, 4, 169, 18, 134, 190, 49, 227, 183, 49, 208, 244, 223, 127, 230, 3, 18, 10, 234, 71, 10, 52, 219, 254, 38, 44, 86, 225, 248, 47, 38, 242, 16, 21, 118, 4, 216, 37, 15, 30, 67, 10, 206, 61, 70, 129, 19, 18, 194, 194, 255, 236, 243, 39, 239, 15, 7, 6, 48, 44, 228, 100, 92, 240, 234, 9, 36, 0, 19, 49, 162, 49, 49, 191, 251, 10, 11, 219, 8, 229, 27, 20, 187, 129, 190, 227, 241, 247, 151, 30, 247, 127, 36, 52, 12, 42, 237, 243, 10, 242, 8, 53, 250, 40, 26, 176, 193, 19, 93, 248, 9, 5, 13, 18, 211, 204, 217, 20, 244, 184, 215, 176, 127, 40, 67, 22, 37, 13, 165, 185, 196, 62, 5, 193, 210, 107, 23, 4, 80, 179, 253, 50, 240, 19, 210, 181, 225, 221, 43, 192, 214, 165, 237, 236, 193, 30, 254, 229, 218, 44, 34, 204, 62, 53, 8, 11, 15, 34, 91, 239, 255, 13, 43, 22, 40, 59, 171, 129, 103, 228, 42, 207, 24, 82, 67, 28, 44, 74, 37, 67, 127, 7, 68, 159, 0, 57, 22, 23, 238, 223, 53, 203, 7, 251, 5, 246, 38, 7, 233, 239, 2, 193, 195, 204, 255, 254, 252, 36, 70, 207, 175, 238, 229, 204, 162, 50, 127, 255, 11, 174, 184, 189, 224, 159, 230, 36, 12, 190, 3, 242, 4, 11, 6, 32, 255, 65, 8, 84, 248, 229, 27, 253, 235, 26, 129, 195, 42, 240, 221, 60, 251, 5, 38, 73, 187, 16, 60, 74, 40, 35, 235, 230, 41, 5, 65, 105, 29, 6, 67, 236, 22, 15, 197, 234, 10, 165, 52, 4, 195, 226, 199, 33, 15, 197, 182, 232, 91, 151, 14, 197, 95, 129, 44, 49, 35, 13, 61, 76, 17, 198, 246, 8, 0, 169, 127, 208, 237, 105, 14, 59, 2, 211, 17, 20, 0, 10, 111, 3, 26, 221, 185, 38, 248, 32, 15, 190, 254, 169, 246, 243, 213, 215, 209, 71, 54, 214, 129, 254, 232, 72, 54, 72, 254, 230, 67, 188, 22, 252, 57, 222, 226, 165, 211, 229, 64, 173, 192, 35, 142, 49, 20, 204, 254, 5, 17, 195, 240, 21, 20, 32, 56, 48, 241, 220, 54, 177, 169, 217, 2, 254, 206, 66, 211, 45, 91, 42, 11, 11, 203, 193, 43, 196, 129, 4, 255, 163, 191, 205, 75, 43, 5, 26, 238, 73, 4, 215, 40, 1, 99, 67, 44, 250, 149, 40, 127, 11, 238, 11, 231, 182, 190, 30, 70, 51, 105, 13, 211, 203, 247, 29, 233, 246, 208, 172, 222, 15, 69, 38, 231, 193, 127, 249, 5, 164, 120, 221, 25, 213, 31, 246, 82, 244, 211, 60, 218, 52, 50, 238, 12, 5, 44, 32, 233, 116, 248, 242, 229, 155, 47, 137, 63, 13, 184, 224, 14, 129, 152, 249, 250, 54, 104, 198, 6, 239, 64, 95, 249, 27, 64, 125, 171, 54, 160, 254, 223, 41, 205, 182, 244, 235, 47, 227, 253, 51, 226, 186, 251, 229, 24, 235, 183, 231, 120, 176, 8, 246, 129, 246, 22, 32, 250, 23, 32, 28, 25, 146, 214, 50, 169, 207, 226, 53, 196, 143, 68, 215, 58, 6, 1, 210, 40, 176, 23, 127, 19, 218, 37, 186, 211, 47, 125, 19, 0, 48, 37, 5, 37, 83, 74, 37, 225, 219, 249, 235, 245, 209, 17, 225, 173, 245, 201, 194, 210, 23, 10, 208, 7, 162, 30, 239, 212, 34, 249, 254, 127, 245, 234, 227, 178, 239, 47, 236, 24, 193, 232, 16, 174, 222, 11, 106, 11, 189, 228, 255, 47, 72, 11, 32, 238, 239, 218, 229, 6, 238, 45, 54, 6, 4, 53, 97, 30, 21, 127, 12, 21, 166, 218, 222, 242, 167, 8, 15, 223, 224, 250, 212, 246, 0, 217, 31, 19, 12, 243, 17, 27, 193, 221, 29, 127, 63, 29, 21, 26, 252, 31, 194, 21, 241, 249, 15, 198, 56, 195, 45, 247, 229, 9, 207, 44, 214, 255, 29, 243, 127, 197, 32, 232, 190, 232, 232, 1, 41, 25, 237, 223, 47, 54, 6, 90, 215, 219, 43, 195, 11, 72, 110, 43, 231, 247, 178, 15, 199, 81, 72, 217, 79, 219, 204, 255, 0, 56, 188, 127, 19, 47, 26, 242, 9, 105, 190, 90, 204, 246, 158, 129, 220, 252, 0, 245, 221, 216, 211, 7, 242, 227, 61, 230, 92, 196, 248, 8, 239, 229, 199, 6, 21, 27, 223, 17, 248, 73, 70, 197, 164, 13, 34, 229, 129, 54, 85, 233, 9, 238, 224, 239, 184, 199, 51, 37, 183, 233, 3, 31, 203, 63, 1, 110, 121, 76, 60, 240, 184, 120, 100, 253, 237, 72, 17, 202, 212, 221, 3, 223, 239, 220, 153, 255, 13, 240, 73, 1, 254, 248, 41, 42, 243, 61, 47, 50, 85, 239, 127, 224, 250, 205, 181, 210, 14, 251, 25, 70, 236, 151, 83, 1, 158, 27, 218, 215, 45, 25, 196, 98, 4, 186, 201, 227, 235, 235, 4, 252, 219, 2, 184, 127, 49, 58, 158, 67, 237, 60, 122, 167, 127, 49, 34, 221, 232, 15, 88, 10, 3, 203, 27, 167, 227, 250, 14, 151, 185, 148, 20, 184, 214, 35, 233, 22, 176, 218, 252, 62, 0, 11, 44, 115, 225, 22, 215, 11, 5, 190, 245, 214, 46, 0, 22, 36, 254, 129, 243, 36, 232, 6, 241, 168, 212, 19, 25, 220, 252, 21, 159, 212, 187, 216, 217, 26, 5, 209, 248, 77, 45, 174, 254, 253, 255, 205, 129, 87, 178, 49, 242, 200, 204, 149, 225, 75, 191, 40, 192, 7, 218, 211, 71, 247, 21, 3, 27, 40, 242, 44, 27, 49, 38, 58, 15, 184, 197, 232, 241, 240, 169, 94, 183, 80, 239, 62, 126, 239, 28, 238, 127, 153, 240, 147, 231, 14, 230, 45, 21, 171, 228, 91, 251, 50, 57, 254, 111, 129, 235, 14, 91, 30, 198, 197, 171, 18, 176, 161, 36, 189, 245, 238, 6, 196, 187, 238, 190, 82, 5, 217, 72, 13, 30, 255, 0, 14, 3, 214, 196, 18, 244, 103, 30, 234, 58, 39, 29, 203, 7, 195, 212, 241, 174, 9, 184, 99, 127, 40, 208, 65, 58, 205, 4, 127, 35, 173, 173, 227, 208, 37, 176, 40, 87, 77, 213, 59, 80, 30, 17, 54, 224, 3, 13, 41, 230, 173, 251, 35, 98, 222, 186, 73, 217, 12, 201, 201, 224, 247, 101, 179, 1, 202, 219, 163, 11, 223, 124, 185, 37, 129, 95, 8, 195, 67, 223, 2, 74, 195, 17, 243, 217, 242, 198, 69, 4, 20, 4, 21, 10, 24, 59, 234, 247, 4, 253, 222, 224, 240, 20, 215, 245, 189, 16, 248, 183, 25, 228, 129, 15, 247, 254, 242, 251, 24, 251, 129, 58, 51, 31, 208, 56, 88, 14, 224, 22, 33, 42, 235, 19, 11, 192, 226, 222, 67, 247, 240, 209, 12, 17, 13, 7, 254, 191, 11, 202, 17, 10, 249, 15, 217, 45, 220, 21, 255, 202, 103, 28, 39, 130, 189, 23, 51, 9, 42, 65, 84, 201, 242, 103, 200, 198, 76, 203, 145, 185, 9, 127, 250, 23, 235, 67, 191, 65, 252, 12, 253, 33, 59, 236, 215, 129, 32, 251, 73, 43, 73, 62, 112, 211, 239, 38, 9, 222, 124, 238, 16, 209, 121, 73, 183, 199, 200, 244, 231, 252, 59, 61, 241, 178, 253, 14, 7, 165, 18, 46, 26, 8, 80, 8, 41, 179, 23, 23, 192, 201, 127, 189, 32, 198, 70, 90, 254, 173, 248, 69, 188, 18, 43, 51, 15, 173, 23, 232, 246, 129, 60, 216, 7, 252, 111, 248, 233, 73, 187, 249, 191, 134, 46, 191, 14, 17, 89, 31, 20, 107, 95, 54, 119, 222, 193, 173, 26, 119, 28, 52, 10, 70, 129, 220, 166, 42, 239, 231, 129, 90, 110, 209, 83, 28, 166, 15, 0, 116, 164, 245, 150, 20, 93, 184, 242, 221, 194, 221, 48, 83, 9, 173, 241, 227, 81, 187, 240, 215, 172, 243, 57, 230, 9, 72, 197, 2, 157, 127, 14, 48, 200, 31, 14, 81, 90, 59, 24, 247, 255, 254, 244, 17, 48, 227, 7, 144, 41, 40, 109, 222, 247, 66, 77, 240, 69, 61, 33, 236, 58, 241, 198, 32, 211, 127, 223, 8, 251, 49, 196, 12, 64, 8, 209, 221, 231, 246, 17, 150, 4, 31, 2, 48, 12, 103, 24, 2, 246, 5, 225, 129, 30, 210, 205, 1, 7, 101, 231, 25, 254, 170, 35, 220, 147, 224, 248, 31, 147, 255, 199, 225, 16, 231, 129, 124, 4, 18, 24, 52, 214, 235, 40, 53, 73, 95, 51, 57, 77, 22, 113, 34, 237, 7, 49, 71, 53, 235, 127, 218, 228, 26, 54, 255, 187, 27, 27, 254, 218, 216, 206, 31, 103, 141, 67, 2, 14, 32, 235, 196, 201, 44, 243, 248, 139, 225, 237, 0, 32, 230, 55, 48, 228, 3, 211, 3, 163, 22, 22, 237, 127, 196, 41, 181, 79, 255, 37, 37, 78, 249, 13, 4, 21, 22, 247, 29, 176, 27, 218, 246, 7, 222, 51, 255, 11, 170, 10, 129, 243, 0, 65, 247, 49, 240, 87, 212, 73, 56, 20, 102, 98, 43, 48, 43, 242, 5, 52, 42, 191, 55, 60, 0, 127, 250, 24, 252, 20, 41, 34, 17, 238, 44, 69, 137, 31, 215, 69, 5, 88, 20, 12, 249, 78, 13, 249, 54, 178, 217, 180, 27, 186, 244, 255, 4, 19, 245, 58, 13, 219, 238, 240, 161, 179, 247, 83, 215, 96, 243, 232, 129, 68, 36, 253, 51, 105, 13, 230, 9, 15, 58, 198, 225, 27, 189, 231, 127, 231, 197, 26, 81, 11, 227, 47, 254, 245, 216, 57, 39, 239, 64, 153, 226, 233, 183, 83, 13, 14, 58, 55, 249, 216, 65, 43, 9, 156, 104, 234, 44, 48, 238, 11, 234, 127, 235, 58, 131, 212, 65, 61, 25, 92, 235, 126, 147, 93, 108, 21, 11, 89, 156, 208, 226, 38, 116, 161, 196, 8, 129, 71, 177, 172, 98, 246, 115, 240, 6, 219, 40, 166, 196, 214, 251, 193, 200, 201, 96, 239, 203, 36, 16, 230, 16, 102, 46, 200, 58, 84, 179, 46, 10, 203, 52, 165, 84, 56, 220, 223, 36, 127, 126, 6, 19, 129, 66, 180, 9, 19, 21, 193, 170, 237, 50, 141, 249, 6, 222, 220, 254, 233, 205, 188, 129, 233, 225, 46, 226, 221, 96, 208, 224, 206, 209, 36, 234, 201, 36, 59, 235, 19, 252, 215, 250, 109, 34, 44, 6, 76, 45, 61, 20, 65, 86, 74, 254, 255, 4, 0, 0, 0, 0, 32, 0, 0, 7, 229, 232, 237, 14, 242, 240, 17, 3, 243, 8, 16, 252, 209, 220, 172, 51, 200, 39, 215, 49, 11, 79, 40, 68, 5, 201, 184, 129, 202, 33, 8, 34, 252, 190, 229, 222, 46, 209, 42, 64, 44, 198, 244, 38, 36, 36, 237, 51, 224, 220, 160, 40, 11, 204, 233, 168, 169, 15, 237, 232, 31, 244, 22, 72, 249, 129, 252, 233, 210, 210, 167, 254, 174, 64, 5, 227, 201, 243, 38, 29, 29, 191, 24, 232, 32, 188, 253, 255, 168, 60, 21, 16, 111, 231, 46, 199, 240, 233, 219, 178, 237, 121, 255, 227, 35, 249, 235, 170, 175, 237, 10, 1, 37, 234, 242, 195, 223, 28, 246, 235, 7, 63, 249, 11, 162, 203, 229, 241, 205, 15, 253, 40, 220, 129, 239, 0, 60, 34, 83, 228, 37, 238, 29, 13, 39, 255, 26, 12, 212, 15, 252, 35, 211, 215, 1, 209, 234, 60, 229, 12, 0, 17, 15, 229, 37, 243, 33, 13, 44, 9, 27, 2, 21, 211, 221, 208, 26, 25, 11, 244, 33, 173, 46, 213, 217, 5, 149, 254, 202, 0, 244, 87, 177, 217, 197, 248, 210, 186, 27, 10, 59, 56, 63, 234, 208, 3, 5, 41, 36, 221, 9, 247, 249, 75, 246, 54, 255, 214, 247, 38, 1, 4, 235, 217, 44, 228, 204, 230, 50, 9, 69, 252, 209, 26, 2, 1, 127, 199, 248, 25, 35, 43, 53, 185, 230, 54, 35, 247, 124, 246, 29, 230, 25, 244, 190, 22, 65, 181, 253, 52, 52, 253, 44, 43, 32, 191, 251, 129, 254, 221, 10, 244, 247, 245, 60, 218, 48, 48, 24, 132, 167, 229, 27, 235, 184, 39, 212, 146, 44, 28, 92, 158, 56, 98, 249, 18, 0, 34, 213, 240, 253, 238, 30, 220, 14, 223, 100, 68, 215, 217, 94, 12, 6, 71, 211, 21, 190, 214, 135, 215, 61, 34, 28, 48, 24, 50, 238, 253, 16, 213, 39, 254, 206, 250, 129, 15, 240, 4, 36, 48, 244, 36, 252, 17, 228, 202, 240, 248, 251, 230, 5, 253, 219, 0, 19, 37, 51, 196, 251, 70, 14, 10, 210, 223, 76, 248, 252, 212, 211, 39, 224, 247, 77, 191, 37, 237, 102, 242, 42, 185, 44, 0, 251, 247, 231, 193, 203, 12, 193, 172, 219, 89, 247, 253, 123, 62, 61, 71, 63, 100, 49, 131, 62, 225, 170, 23, 213, 34, 211, 19, 231, 127, 17, 201, 15, 1, 239, 32, 2, 62, 62, 55, 242, 26, 249, 83, 94, 134, 190, 46, 25, 48, 5, 10, 228, 239, 34, 238, 216, 1, 237, 47, 2, 3, 152, 203, 40, 59, 17, 222, 94, 16, 250, 236, 25, 32, 65, 54, 64, 13, 183, 195, 253, 154, 42, 56, 208, 7, 227, 46, 17, 206, 9, 235, 69, 24, 255, 112, 25, 188, 43, 5, 60, 174, 88, 66, 7, 240, 230, 168, 171, 144, 11, 38, 199, 251, 231, 237, 245, 210, 231, 84, 7, 233, 44, 67, 127, 35, 44, 43, 214, 208, 33, 113, 15, 195, 2, 61, 50, 30, 129, 222, 222, 252, 40, 52, 212, 11, 253, 226, 25, 206, 238, 33, 244, 59, 95, 201, 218, 40, 10, 254, 41, 253, 64, 197, 204, 220, 67, 222, 28, 203, 69, 207, 20, 26, 41, 243, 196, 174, 200, 232, 40, 5, 53, 15, 189, 4, 85, 237, 239, 213, 211, 43, 226, 254, 55, 235, 66, 88, 1, 207, 53, 236, 13, 18, 247, 91, 246, 224, 229, 76, 83, 24, 232, 232, 18, 12, 11, 129, 71, 249, 21, 225, 7, 56, 226, 191, 56, 197, 233, 23, 232, 210, 12, 122, 241, 68, 234, 189, 204, 25, 40, 106, 96, 179, 61, 209, 180, 116, 254, 64, 156, 145, 3, 56, 193, 78, 235, 219, 144, 187, 219, 204, 8, 64, 33, 68, 76, 251, 31, 18, 151, 11, 11, 252, 14, 9, 42, 15, 228, 35, 230, 78, 2, 30, 143, 215, 211, 236, 56, 37, 184, 219, 220, 236, 253, 38, 239, 6, 209, 189, 15, 59, 9, 237, 129, 222, 207, 25, 244, 38, 182, 32, 16, 15, 201, 21, 32, 49, 235, 191, 249, 49, 44, 231, 13, 28, 16, 235, 49, 197, 77, 45, 56, 236, 244, 186, 66, 218, 8, 192, 218, 249, 20, 17, 198, 129, 238, 226, 115, 247, 246, 96, 240, 202, 57, 45, 226, 184, 28, 6, 228, 202, 6, 249, 240, 148, 12, 207, 224, 236, 237, 183, 114, 33, 188, 62, 87, 226, 58, 62, 14, 219, 232, 204, 16, 249, 233, 225, 207, 222, 235, 248, 22, 228, 195, 21, 14, 52, 208, 34, 224, 243, 224, 62, 6, 12, 23, 11, 51, 53, 226, 240, 158, 180, 213, 202, 255, 14, 5, 231, 4, 241, 3, 250, 17, 27, 241, 222, 255, 39, 33, 36, 59, 241, 251, 53, 1, 92, 4, 6, 43, 202, 129, 204, 239, 3, 237, 241, 12, 23, 234, 18, 158, 19, 218, 229, 54, 41, 46, 226, 219, 212, 6, 11, 142, 89, 59, 53, 26, 105, 199, 33, 230, 53, 39, 175, 181, 189, 17, 166, 5, 6, 41, 8, 46, 33, 76, 231, 38, 53, 51, 176, 233, 14, 232, 250, 236, 247, 190, 190, 194, 228, 98, 20, 221, 239, 30, 196, 32, 208, 252, 127, 216, 232, 226, 47, 192, 0, 152, 1, 210, 240, 210, 27, 169, 76, 75, 254, 66, 50, 50, 200, 101, 239, 218, 5, 189, 21, 0, 233, 6, 231, 245, 180, 232, 11, 61, 37, 8, 217, 36, 11, 233, 165, 4, 36, 127, 51, 204, 53, 18, 30, 27, 245, 250, 71, 49, 191, 176, 231, 161, 233, 151, 191, 199, 186, 247, 60, 186, 16, 1, 254, 204, 232, 96, 82, 225, 68, 12, 24, 41, 214, 195, 127, 106, 254, 37, 51, 176, 67, 54, 69, 40, 234, 230, 232, 8, 241, 8, 110, 241, 181, 220, 193, 44, 41, 255, 126, 2, 21, 228, 66, 232, 52, 200, 254, 1, 233, 167, 240, 7, 132, 170, 198, 60, 149, 39, 200, 40, 59, 3, 38, 133, 72, 24, 65, 243, 193, 55, 20, 250, 196, 26, 68, 189, 208, 129, 41, 2, 90, 236, 47, 1, 228, 196, 21, 102, 246, 169, 255, 241, 214, 37, 26, 221, 205, 233, 241, 16, 218, 90, 27, 240, 218, 176, 14, 210, 231, 155, 35, 0, 206, 157, 33, 208, 31, 248, 210, 238, 174, 244, 29, 223, 118, 207, 209, 153, 236, 247, 168, 25, 219, 9, 204, 245, 53, 147, 211, 205, 229, 19, 189, 216, 213, 239, 242, 12, 92, 84, 247, 213, 224, 129, 39, 217, 14, 225, 95, 220, 236, 46, 134, 182, 70, 217, 199, 7, 251, 47, 48, 48, 248, 23, 131, 198, 15, 255, 82, 194, 181, 59, 161, 151, 22, 0, 234, 58, 47, 197, 105, 226, 178, 49, 223, 5, 202, 222, 242, 4, 33, 16, 223, 253, 220, 96, 6, 238, 3, 105, 213, 249, 53, 3, 34, 219, 11, 205, 75, 2, 15, 245, 240, 49, 201, 64, 31, 152, 176, 184, 78, 183, 38, 24, 247, 65, 199, 186, 166, 82, 90, 127, 201, 247, 0, 66, 8, 68, 12, 253, 9, 19, 252, 1, 245, 40, 38, 17, 217, 5, 4, 34, 30, 13, 18, 220, 245, 209, 214, 10, 59, 12, 210, 230, 212, 3, 0, 209, 239, 10, 220, 72, 54, 54, 37, 23, 161, 243, 250, 81, 53, 30, 37, 12, 246, 59, 38, 179, 25, 236, 6, 73, 199, 5, 53, 49, 221, 33, 13, 229, 127, 79, 199, 37, 6, 13, 11, 66, 4, 217, 235, 77, 50, 226, 198, 52, 238, 1, 133, 227, 58, 216, 225, 187, 33, 226, 5, 212, 219, 1, 24, 232, 203, 66, 216, 41, 226, 23, 231, 18, 240, 187, 252, 240, 219, 231, 214, 21, 41, 241, 183, 238, 239, 199, 184, 233, 4, 218, 155, 47, 176, 248, 28, 202, 250, 212, 212, 48, 113, 33, 127, 5, 0, 182, 204, 239, 70, 218, 184, 30, 5, 30, 99, 34, 182, 21, 226, 254, 5, 151, 111, 233, 241, 216, 88, 238, 60, 240, 203, 2, 149, 224, 49, 13, 38, 214, 52, 217, 200, 91, 204, 216, 250, 22, 154, 245, 54, 9, 66, 172, 244, 252, 225, 227, 21, 13, 10, 240, 5, 129, 8, 233, 27, 1, 251, 241, 222, 185, 233, 222, 254, 231, 9, 27, 238, 69, 48, 0, 22, 206, 252, 188, 181, 154, 4, 43, 253, 244, 109, 14, 34, 244, 24, 165, 151, 217, 218, 55, 19, 17, 12, 21, 0, 38, 25, 12, 112, 69, 23, 7, 41, 249, 39, 104, 47, 22, 24, 254, 48, 72, 212, 202, 7, 198, 129, 77, 243, 59, 57, 0, 5, 236, 10, 233, 51, 1, 16, 9, 46, 227, 32, 14, 47, 221, 236, 152, 250, 222, 52, 237, 98, 215, 48, 64, 42, 240, 202, 194, 31, 239, 241, 255, 82, 168, 244, 33, 249, 20, 177, 28, 19, 242, 243, 3, 25, 41, 39, 206, 27, 250, 249, 129, 23, 25, 76, 255, 63, 4, 198, 49, 204, 0, 12, 251, 66, 240, 70, 70, 208, 5, 242, 209, 243, 180, 45, 220, 6, 3, 42, 232, 88, 117, 2, 63, 224, 232, 249, 243, 39, 121, 232, 255, 37, 19, 199, 2, 35, 234, 194, 246, 208, 16, 47, 231, 17, 206, 191, 181, 8, 21, 16, 26, 207, 223, 101, 36, 28, 8, 13, 129, 29, 10, 182, 31, 56, 243, 9, 2, 56, 29, 198, 55, 45, 73, 102, 34, 165, 186, 169, 46, 7, 255, 15, 243, 80, 129, 229, 163, 24, 24, 211, 88, 161, 38, 12, 8, 173, 180, 23, 86, 74, 72, 214, 29, 32, 137, 251, 114, 38, 86, 27, 182, 26, 250, 28, 148, 160, 49, 16, 193, 225, 137, 106, 197, 177, 232, 43, 57, 65, 61, 26, 221, 234, 241, 171, 17, 29, 0, 243, 157, 226, 200, 1, 255, 50, 213, 236, 89, 31, 5, 122, 14, 49, 212, 234, 129, 46, 195, 5, 50, 195, 28, 234, 223, 245, 35, 54, 152, 14, 20, 7, 234, 236, 98, 135, 232, 14, 157, 40, 216, 251, 66, 11, 56, 84, 2, 155, 145, 255, 171, 55, 9, 224, 225, 246, 211, 24, 9, 251, 246, 30, 47, 36, 26, 250, 84, 245, 56, 19, 187, 188, 169, 217, 199, 44, 222, 8, 106, 78, 205, 244, 76, 202, 1, 240, 248, 4, 21, 46, 238, 232, 225, 250, 209, 231, 229, 108, 19, 219, 169, 48, 5, 76, 182, 53, 229, 191, 46, 39, 212, 28, 33, 206, 247, 46, 230, 34, 127, 48, 191, 246, 193, 71, 250, 219, 195, 229, 235, 228, 205, 196, 129, 120, 209, 233, 244, 59, 38, 51, 243, 34, 5, 9, 184, 57, 54, 203, 229, 54, 237, 227, 203, 232, 179, 238, 190, 15, 241, 7, 41, 36, 252, 249, 188, 41, 220, 58, 210, 239, 236, 214, 160, 242, 27, 22, 142, 238, 198, 242, 14, 254, 190, 37, 52, 14, 65, 181, 130, 79, 193, 129, 58, 28, 217, 66, 22, 237, 63, 228, 75, 179, 159, 171, 40, 253, 1, 2, 39, 180, 14, 47, 207, 253, 184, 203, 22, 50, 241, 252, 72, 250, 252, 209, 254, 43, 248, 8, 2, 16, 102, 15, 86, 245, 12, 242, 198, 10, 3, 207, 228, 217, 248, 183, 255, 203, 42, 4, 216, 40, 177, 180, 200, 229, 129, 206, 232, 247, 88, 254, 106, 22, 221, 31, 69, 242, 226, 2, 6, 224, 220, 53, 245, 62, 4, 4, 222, 10, 27, 45, 245, 248, 204, 40, 145, 142, 44, 40, 171, 81, 187, 237, 48, 27, 47, 25, 174, 0, 30, 76, 213, 204, 201, 218, 235, 237, 74, 230, 86, 71, 199, 200, 149, 227, 228, 225, 222, 79, 199, 136, 44, 63, 30, 254, 53, 26, 199, 236, 211, 59, 212, 49, 200, 2, 61, 29, 228, 246, 31, 204, 235, 173, 38, 38, 253, 79, 199, 221, 249, 206, 83, 144, 54, 64, 13, 149, 179, 29, 74, 10, 226, 174, 191, 129, 218, 218, 248, 217, 41, 138, 80, 216, 204, 186, 41, 37, 210, 37, 7, 14, 239, 238, 11, 249, 42, 232, 240, 238, 248, 11, 207, 13, 249, 7, 6, 82, 221, 26, 6, 7, 31, 249, 243, 246, 11, 129, 11, 43, 229, 247, 246, 236, 201, 13, 214, 255, 32, 54, 39, 185, 227, 33, 27, 13, 222, 26, 226, 10, 226, 23, 214, 197, 20, 197, 155, 248, 238, 57, 32, 0, 14, 55, 53, 150, 77, 25, 11, 25, 190, 201, 227, 251, 33, 200, 247, 181, 31, 251, 74, 98, 178, 204, 217, 231, 12, 245, 203, 81, 73, 17, 58, 37, 10, 167, 127, 235, 232, 217, 29, 98, 251, 199, 229, 248, 18, 252, 135, 229, 244, 4, 51, 29, 18, 230, 200, 74, 4, 136, 244, 116, 16, 0, 224, 159, 172, 235, 242, 4, 9, 254, 248, 199, 10, 250, 253, 231, 233, 38, 20, 255, 255, 9, 25, 15, 245, 245, 233, 239, 198, 250, 30, 226, 14, 234, 217, 9, 231, 241, 249, 249, 214, 14, 39, 226, 252, 239, 20, 253, 255, 3, 238, 226, 239, 203, 19, 221, 0, 238, 241, 129, 8, 5, 247, 232, 182, 2, 216, 8, 239, 44, 64, 202, 232, 76, 234, 228, 217, 15, 7, 216, 51, 43, 30, 210, 21, 44, 72, 196, 7, 200, 15, 21, 216, 165, 224, 248, 22, 3, 43, 43, 202, 131, 127, 235, 184, 173, 24, 10, 27, 230, 228, 85, 43, 169, 57, 228, 77, 70, 220, 16, 6, 18, 150, 22, 248, 23, 220, 28, 3, 33, 200, 217, 246, 1, 1, 207, 51, 43, 241, 232, 157, 163, 230, 25, 220, 50, 30, 230, 7, 15, 23, 178, 21, 10, 46, 196, 239, 249, 202, 38, 4, 38, 250, 38, 217, 1, 28, 61, 167, 216, 14, 21, 152, 9, 21, 33, 127, 252, 222, 245, 202, 39, 212, 227, 69, 18, 219, 196, 232, 196, 220, 95, 163, 206, 198, 187, 210, 250, 38, 4, 72, 239, 44, 62, 251, 164, 243, 217, 223, 52, 0, 236, 244, 5, 21, 40, 30, 248, 97, 190, 239, 10, 10, 230, 27, 204, 5, 2, 191, 245, 39, 68, 235, 74, 224, 25, 168, 219, 14, 101, 14, 227, 216, 255, 227, 174, 199, 96, 27, 226, 21, 129, 226, 25, 6, 59, 226, 208, 192, 183, 64, 2, 33, 234, 252, 209, 19, 234, 222, 20, 27, 43, 52, 211, 38, 219, 15, 250, 240, 71, 43, 221, 183, 29, 222, 171, 3, 55, 97, 127, 192, 23, 34, 184, 99, 249, 197, 249, 97, 33, 231, 203, 231, 22, 96, 190, 65, 38, 219, 221, 161, 216, 25, 33, 207, 184, 44, 197, 25, 54, 225, 39, 15, 137, 10, 74, 81, 254, 66, 228, 249, 6, 49, 38, 220, 248, 227, 190, 217, 243, 251, 205, 69, 230, 15, 187, 13, 254, 6, 165, 241, 65, 34, 61, 5, 38, 5, 240, 58, 50, 7, 24, 220, 113, 244, 143, 240, 49, 255, 188, 48, 9, 31, 227, 26, 41, 59, 229, 248, 37, 23, 17, 6, 127, 5, 6, 234, 186, 15, 129, 61, 73, 69, 246, 12, 113, 222, 243, 212, 217, 202, 53, 1, 45, 194, 78, 95, 253, 5, 253, 0, 251, 220, 22, 62, 95, 68, 12, 17, 212, 13, 208, 40, 30, 4, 43, 7, 195, 58, 40, 241, 241, 207, 211, 34, 255, 64, 241, 222, 254, 248, 242, 105, 236, 232, 95, 252, 228, 5, 198, 29, 123, 110, 43, 250, 227, 36, 231, 7, 6, 234, 166, 238, 27, 245, 235, 50, 238, 42, 63, 47, 127, 9, 185, 238, 189, 210, 204, 214, 53, 19, 52, 34, 12, 217, 191, 212, 86, 195, 50, 230, 214, 11, 177, 214, 44, 77, 228, 215, 188, 245, 54, 207, 36, 215, 123, 203, 5, 247, 36, 149, 15, 175, 119, 180, 223, 71, 253, 217, 239, 227, 56, 245, 210, 23, 37, 249, 249, 25, 95, 10, 235, 92, 65, 19, 160, 25, 32, 149, 247, 205, 28, 236, 67, 221, 219, 31, 222, 213, 20, 26, 14, 129, 64, 2, 98, 222, 237, 171, 22, 79, 63, 228, 2, 21, 34, 18, 55, 23, 13, 74, 199, 202, 94, 246, 57, 243, 183, 162, 184, 20, 20, 68, 235, 54, 219, 255, 227, 159, 239, 34, 8, 244, 53, 199, 25, 93, 129, 10, 4, 247, 246, 219, 17, 206, 180, 156, 212, 14, 70, 235, 28, 131, 156, 39, 67, 171, 65, 65, 29, 217, 207, 22, 100, 68, 247, 223, 179, 233, 227, 201, 30, 27, 60, 207, 214, 242, 29, 239, 83, 17, 243, 182, 160, 68, 98, 30, 245, 78, 59, 5, 190, 245, 172, 222, 185, 70, 45, 245, 224, 57, 7, 41, 54, 218, 47, 21, 177, 144, 129, 214, 245, 8, 152, 19, 234, 218, 175, 25, 51, 252, 37, 37, 10, 16, 22, 29, 238, 67, 226, 243, 177, 78, 30, 66, 62, 64, 18, 17, 7, 185, 180, 143, 31, 8, 254, 175, 154, 231, 20, 31, 225, 61, 239, 60, 71, 17, 165, 20, 239, 39, 191, 250, 223, 228, 10, 17, 30, 14, 230, 28, 12, 202, 5, 147, 71, 74, 70, 56, 90, 238, 226, 14, 43, 169, 233, 27, 55, 148, 175, 251, 253, 247, 237, 129, 30, 130, 228, 241, 44, 251, 220, 40, 207, 50, 235, 221, 81, 253, 21, 227, 29, 218, 224, 82, 239, 239, 66, 255, 160, 13, 216, 68, 49, 109, 225, 29, 19, 62, 88, 116, 185, 247, 34, 250, 54, 213, 210, 5, 247, 78, 248, 2, 35, 54, 239, 252, 236, 7, 238, 210, 226, 19, 5, 119, 244, 245, 242, 127, 202, 67, 202, 33, 225, 46, 55, 74, 226, 42, 23, 28, 208, 179, 245, 20, 255, 2, 58, 69, 2, 251, 246, 6, 9, 254, 231, 5, 48, 236, 253, 18, 212, 234, 220, 28, 217, 37, 220, 23, 6, 250, 224, 24, 9, 31, 57, 42, 77, 237, 237, 32, 27, 214, 209, 210, 73, 198, 234, 247, 127, 23, 245, 211, 197, 135, 202, 7, 50, 1, 48, 247, 221, 41, 31, 83, 3, 176, 63, 231, 203, 202, 69, 19, 199, 40, 217, 239, 247, 186, 234, 242, 228, 216, 242, 220, 243, 75, 242, 72, 21, 253, 204, 40, 129, 236, 184, 253, 31, 15, 1, 51, 56, 161, 207, 43, 75, 155, 37, 199, 6, 199, 231, 31, 86, 43, 230, 200, 183, 168, 220, 35, 83, 240, 50, 0, 222, 236, 56, 212, 53, 207, 83, 199, 205, 14, 13, 19, 223, 210, 251, 254, 229, 56, 240, 48, 50, 178, 1, 243, 241, 242, 186, 33, 224, 21, 4, 7, 45, 16, 10, 253, 35, 140, 90, 50, 242, 7, 250, 218, 249, 249, 2, 201, 127, 5, 212, 211, 47, 57, 248, 59, 26, 4, 217, 203, 238, 232, 75, 231, 1, 69, 214, 132, 19, 145, 74, 239, 6, 238, 12, 55, 56, 64, 204, 50, 205, 236, 247, 112, 5, 81, 234, 17, 206, 9, 153, 14, 45, 242, 208, 45, 13, 43, 154, 201, 228, 55, 10, 246, 58, 38, 228, 127, 46, 219, 4, 38, 19, 11, 104, 209, 24, 11, 163, 20, 190, 198, 206, 37, 59, 28, 247, 209, 59, 75, 212, 23, 44, 188, 233, 255, 185, 218, 65, 233, 235, 83, 225, 99, 93, 197, 207, 11, 36, 191, 20, 220, 201, 72, 217, 91, 65, 248, 250, 50, 30, 129, 210, 26, 23, 99, 77, 96, 113, 104, 204, 175, 60, 144, 220, 227, 212, 212, 141, 64, 222, 57, 232, 234, 225, 229, 214, 229, 55, 75, 203, 244, 241, 0, 99, 9, 1, 32, 79, 33, 74, 75, 43, 254, 188, 2, 22, 4, 1, 222, 129, 211, 13, 214, 43, 37, 38, 108, 217, 8, 4, 204, 231, 16, 162, 16, 217, 193, 235, 24, 100, 58, 248, 0, 244, 71, 83, 188, 23, 253, 220, 187, 5, 240, 94, 47, 246, 184, 7, 2, 40, 244, 123, 58, 24, 26, 239, 2, 58, 226, 24, 217, 56, 181, 165, 21, 24, 251, 239, 20, 226, 74, 8, 224, 187, 252, 66, 233, 5, 34, 5, 246, 35, 243, 57, 181, 193, 63, 185, 222, 240, 249, 223, 53, 199, 0, 78, 20, 11, 240, 23, 11, 232, 245, 247, 206, 249, 250, 167, 228, 221, 48, 17, 21, 241, 239, 2, 221, 50, 19, 24, 232, 173, 129, 250, 181, 32, 241, 199, 18, 17, 239, 62, 89, 227, 252, 64, 219, 204, 34, 25, 129, 243, 246, 13, 240, 18, 93, 94, 0, 217, 242, 203, 189, 14, 29, 242, 249, 252, 15, 222, 227, 205, 191, 77, 214, 46, 246, 1, 193, 213, 238, 64, 0, 227, 199, 192, 54, 37, 16, 56, 51, 46, 58, 5, 234, 2, 172, 26, 185, 46, 224, 226, 86, 27, 58, 12, 7, 14, 77, 7, 235, 248, 4, 242, 105, 153, 11, 206, 239, 216, 152, 73, 82, 20, 6, 64, 216, 195, 62, 246, 127, 79, 226, 99, 255, 214, 75, 213, 233, 217, 232, 230, 209, 58, 206, 249, 191, 226, 45, 28, 136, 36, 244, 215, 46, 16, 245, 34, 79, 36, 74, 79, 20, 235, 45, 221, 210, 34, 222, 60, 18, 89, 9, 10, 231, 22, 47, 216, 6, 207, 232, 228, 239, 55, 83, 184, 177, 168, 37, 73, 214, 5, 6, 17, 4, 2, 76, 50, 31, 190, 13, 224, 159, 244, 221, 188, 218, 171, 220, 56, 212, 235, 228, 43, 30, 213, 14, 196, 50, 157, 196, 83, 188, 179, 127, 44, 31, 91, 206, 9, 229, 217, 1, 23, 1, 34, 64, 114, 91, 15, 13, 210, 66, 135, 16, 5, 181, 129, 239, 6, 213, 206, 49, 50, 160, 197, 89, 52, 49, 248, 181, 99, 60, 44, 94, 236, 228, 24, 194, 40, 126, 212, 205, 66, 62, 50, 59, 11, 184, 235, 9, 222, 244, 21, 28, 63, 209, 183, 2, 79, 40, 50, 56, 24, 223, 40, 14, 31, 25, 28, 20, 23, 39, 1, 27, 247, 44, 229, 202, 213, 228, 23, 11, 89, 240, 213, 12, 229, 129, 0, 111, 205, 17, 147, 25, 29, 247, 230, 217, 29, 2, 226, 64, 244, 21, 40, 51, 211, 246, 244, 51, 238, 248, 237, 44, 224, 20, 40, 70, 240, 254, 82, 25, 251, 230, 11, 55, 4, 45, 238, 26, 22, 239, 237, 253, 243, 235, 205, 170, 234, 183, 240, 23, 17, 1, 220, 1, 109, 18, 235, 70, 207, 0, 14, 15, 254, 218, 19, 235, 252, 19, 217, 16, 29, 244, 255, 224, 6, 11, 9, 243, 17, 241, 244, 221, 31, 22, 247, 215, 7, 241, 24, 18, 206, 222, 4, 129, 255, 192, 247, 33, 247, 7, 29, 79, 62, 7, 41, 224, 217, 61, 244, 46, 221, 20, 194, 28, 208, 231, 208, 42, 248, 232, 214, 49, 45, 247, 227, 105, 48, 127, 27, 194, 225, 16, 9, 71, 235, 249, 13, 165, 206, 228, 82, 92, 250, 34, 215, 100, 18, 200, 249, 255, 170, 53, 210, 52, 241, 31, 224, 90, 15, 216, 251, 123, 76, 59, 47, 61, 208, 199, 193, 158, 154, 114, 12, 71, 223, 43, 14, 49, 214, 63, 244, 237, 137, 217, 230, 45, 235, 205, 187, 253, 123, 11, 5, 170, 192, 62, 205, 30, 218, 239, 0, 230, 26, 232, 17, 11, 1, 6, 23, 232, 7, 61, 149, 86, 197, 13, 244, 188, 202, 87, 198, 226, 156, 247, 127, 223, 31, 163, 72, 53, 225, 91, 22, 0, 247, 253, 238, 53, 216, 57, 17, 35, 254, 49, 187, 85, 75, 5, 226, 34, 215, 129, 181, 0, 74, 77, 2, 33, 235, 148, 136, 211, 57, 188, 232, 27, 120, 187, 41, 202, 33, 58, 0, 178, 35, 247, 188, 232, 53, 46, 18, 197, 139, 195, 237, 165, 34, 198, 124, 249, 154, 89, 232, 197, 0, 255, 12, 57, 187, 196, 237, 208, 247, 19, 8, 235, 40, 16, 2, 4, 44, 157, 48, 75, 250, 238, 220, 235, 161, 217, 132, 235, 161, 183, 213, 50, 241, 186, 255, 255, 157, 213, 48, 73, 191, 13, 36, 255, 18, 37, 233, 182, 227, 199, 49, 110, 135, 225, 129, 6, 212, 164, 182, 236, 192, 80, 38, 44, 51, 41, 2, 254, 26, 35, 25, 40, 59, 75, 29, 131, 2, 221, 129, 145, 12, 208, 89, 250, 22, 186, 241, 212, 18, 18, 245, 38, 20, 34, 19, 194, 163, 20, 71, 231, 36, 188, 244, 53, 207, 175, 217, 229, 105, 139, 203, 242, 51, 213, 201, 230, 0, 222, 74, 6, 35, 93, 7, 41, 237, 54, 46, 208, 187, 188, 231, 9, 249, 220, 196, 155, 50, 200, 146, 53, 17, 247, 195, 208, 16, 24, 237, 27, 254, 41, 73, 236, 221, 179, 18, 232, 250, 227, 88, 213, 34, 253, 186, 165, 12, 252, 5, 215, 226, 23, 46, 54, 10, 28, 228, 226, 82, 236, 91, 42, 212, 30, 226, 129, 237, 135, 235, 17, 7, 10, 162, 32, 225, 7, 15, 25, 224, 46, 230, 48, 14, 247, 12, 20, 250, 18, 152, 216, 154, 228, 230, 183, 24, 166, 225, 213, 221, 70, 71, 228, 252, 10, 49, 150, 31, 8, 62, 61, 80, 47, 129, 134, 44, 253, 223, 11, 187, 220, 106, 200, 3, 38, 13, 209, 254, 9, 37, 36, 85, 252, 198, 246, 202, 44, 15, 227, 53, 74, 233, 192, 6, 41, 14, 23, 165, 239, 42, 219, 247, 243, 252, 21, 234, 237, 239, 216, 225, 150, 161, 56, 226, 52, 45, 51, 18, 6, 182, 129, 244, 239, 82, 194, 27, 108, 182, 208, 10, 231, 55, 12, 243, 24, 35, 64, 205, 75, 209, 225, 58, 246, 13, 28, 25, 92, 55, 10, 3, 9, 45, 34, 50, 66, 25, 11, 198, 31, 220, 67, 12, 21, 9, 207, 177, 43, 221, 27, 213, 19, 216, 225, 216, 129, 181, 203, 11, 106, 6, 208, 125, 237, 145, 209, 16, 225, 36, 248, 14, 26, 247, 191, 234, 5, 201, 228, 230, 187, 243, 10, 10, 46, 26, 200, 253, 44, 229, 43, 11, 56, 23, 219, 229, 27, 11, 216, 217, 208, 91, 167, 218, 2, 18, 46, 249, 64, 236, 253, 212, 246, 68, 11, 14, 237, 252, 129, 252, 17, 16, 217, 202, 232, 193, 230, 248, 187, 31, 246, 56, 165, 211, 62, 8, 246, 166, 3, 3, 37, 13, 3, 46, 6, 110, 56, 14, 239, 215, 72, 240, 161, 249, 231, 50, 11, 185, 243, 228, 227, 90, 11, 162, 250, 6, 234, 211, 144, 177, 26, 160, 243, 38, 63, 214, 94, 62, 18, 11, 10, 240, 208, 129, 217, 222, 204, 34, 30, 101, 40, 247, 216, 247, 164, 106, 235, 245, 198, 48, 13, 20, 25, 127, 250, 33, 198, 189, 242, 32, 50, 90, 30, 50, 213, 227, 238, 10, 39, 62, 231, 27, 226, 4, 221, 73, 19, 3, 20, 209, 44, 38, 215, 201, 31, 5, 229, 54, 8, 11, 42, 35, 127, 60, 249, 153, 212, 227, 245, 205, 66, 79, 62, 103, 43, 23, 5, 182, 255, 38, 204, 231, 142, 71, 236, 231, 182, 90, 18, 178, 241, 238, 171, 234, 17, 84, 118, 240, 175, 20, 33, 18, 238, 53, 20, 7, 224, 13, 216, 5, 9, 186, 209, 19, 255, 212, 46, 251, 62, 127, 105, 254, 5, 27, 63, 48, 236, 226, 210, 1, 26, 225, 34, 240, 194, 8, 241, 206, 8, 235, 245, 35, 54, 222, 6, 236, 88, 40, 215, 123, 34, 243, 243, 7, 19, 7, 38, 207, 46, 54, 206, 223, 29, 9, 23, 180, 43, 255, 219, 229, 147, 210, 3, 0, 6, 138, 209, 25, 193, 15, 43, 217, 123, 51, 50, 195, 246, 129, 40, 13, 206, 174, 42, 246, 190, 209, 17, 0, 207, 58, 213, 57, 29, 99, 224, 18, 46, 26, 15, 147, 194, 18, 240, 239, 27, 98, 14, 15, 19, 14, 153, 250, 44, 239, 10, 172, 248, 219, 26, 49, 75, 43, 229, 226, 17, 211, 220, 201, 200, 43, 73, 14, 3, 11, 18, 2, 223, 129, 250, 95, 253, 35, 247, 233, 84, 142, 252, 35, 165, 233, 151, 59, 50, 246, 26, 45, 253, 53, 183, 56, 135, 5, 174, 82, 210, 9, 245, 213, 42, 246, 244, 222, 159, 40, 145, 33, 214, 232, 43, 243, 108, 65, 207, 67, 51, 46, 60, 9, 20, 91, 54, 20, 58, 214, 47, 219, 25, 234, 218, 187, 65, 13, 253, 193, 254, 242, 18, 184, 22, 18, 14, 249, 232, 44, 168, 129, 212, 19, 106, 52, 239, 32, 213, 140, 61, 4, 219, 240, 35, 71, 243, 168, 20, 48, 23, 189, 235, 237, 215, 248, 245, 251, 35, 38, 212, 54, 46, 231, 59, 105, 23, 241, 222, 158, 29, 47, 227, 245, 198, 246, 175, 213, 3, 45, 26, 198, 36, 20, 14, 56, 47, 254, 49, 154, 217, 205, 191, 248, 154, 4, 23, 28, 11, 225, 202, 198, 222, 23, 206, 241, 2, 54, 219, 35, 127, 200, 214, 4, 5, 29, 60, 31, 23, 26, 52, 230, 232, 3, 198, 54, 10, 225, 17, 209, 13, 56, 195, 24, 58, 61, 214, 70, 234, 254, 249, 246, 243, 82, 231, 1, 35, 24, 83, 248, 235, 127, 26, 11, 43, 255, 166, 13, 210, 231, 10, 245, 87, 30, 11, 202, 22, 21, 168, 13, 240, 240, 223, 230, 26, 196, 204, 52, 239, 42, 184, 158, 224, 77, 67, 101, 43, 0, 253, 244, 223, 88, 233, 216, 225, 9, 254, 72, 252, 22, 22, 31, 57, 42, 0, 40, 19, 222, 159, 140, 193, 17, 251, 238, 46, 12, 111, 12, 17, 222, 7, 181, 150, 0, 77, 232, 52, 84, 37, 221, 192, 4, 7, 46, 244, 72, 222, 157, 228, 150, 237, 233, 30, 32, 163, 8, 243, 227, 195, 231, 25, 221, 25, 82, 196, 45, 136, 245, 227, 78, 36, 127, 101, 98, 45, 172, 204, 99, 184, 177, 190, 244, 67, 245, 105, 162, 46, 149, 51, 31, 37, 237, 40, 4, 166, 196, 30, 245, 254, 15, 17, 186, 22, 43, 129, 1, 27, 72, 143, 40, 29, 10, 77, 60, 49, 216, 7, 20, 31, 71, 232, 121, 102, 231, 40, 13, 26, 36, 20, 168, 240, 11, 212, 41, 221, 210, 151, 200, 19, 29, 53, 161, 108, 76, 239, 222, 235, 30, 206, 10, 216, 13, 195, 242, 252, 8, 237, 44, 86, 6, 65, 23, 234, 232, 1, 80, 16, 243, 127, 45, 33, 12, 95, 45, 246, 233, 232, 47, 61, 247, 7, 235, 209, 221, 47, 173, 233, 32, 7, 254, 22, 5, 34, 22, 42, 26, 238, 240, 27, 13, 10, 209, 60, 46, 11, 37, 1, 242, 60, 41, 253, 235, 43, 9, 243, 236, 179, 210, 14, 43, 232, 73, 28, 80, 229, 228, 53, 187, 55, 205, 233, 245, 30, 255, 56, 229, 5, 42, 85, 212, 48, 26, 255, 129, 228, 41, 84, 44, 49, 0, 225, 150, 21, 23, 62, 252, 229, 235, 205, 241, 34, 232, 73, 255, 22, 2, 1, 230, 201, 194, 57, 50, 8, 0, 214, 16, 0, 182, 25, 251, 33, 54, 210, 64, 53, 236, 46, 9, 127, 46, 20, 6, 184, 240, 247, 240, 225, 99, 203, 37, 46, 199, 19, 216, 214, 98, 19, 53, 0, 223, 200, 212, 248, 229, 169, 60, 185, 57, 3, 204, 52, 54, 222, 215, 228, 190, 44, 32, 244, 25, 70, 72, 9, 38, 40, 241, 22, 0, 80, 16, 52, 238, 51, 221, 175, 34, 231, 246, 3, 64, 244, 11, 233, 129, 231, 239, 87, 6, 229, 79, 86, 140, 237, 246, 39, 225, 57, 200, 238, 212, 41, 39, 12, 238, 2, 239, 179, 251, 186, 189, 43, 226, 16, 198, 218, 235, 81, 26, 252, 224, 16, 60, 223, 248, 255, 16, 247, 232, 10, 28, 48, 243, 215, 46, 248, 251, 242, 63, 204, 253, 26, 55, 21, 28, 11, 19, 242, 19, 66, 253, 235, 47, 37, 133, 64, 40, 12, 231, 253, 12, 5, 227, 181, 14, 52, 229, 223, 26, 37, 21, 127, 204, 204, 28, 250, 27, 30, 207, 21, 18, 14, 211, 238, 230, 56, 49, 39, 237, 234, 78, 28, 12, 249, 30, 217, 246, 17, 224, 4, 33, 207, 17, 211, 174, 1, 65, 47, 80, 35, 8, 224, 254, 26, 217, 9, 241, 218, 15, 237, 245, 226, 181, 186, 46, 202, 18, 240, 234, 2, 223, 15, 20, 219, 127, 165, 39, 226, 232, 219, 36, 229, 49, 237, 250, 195, 253, 29, 32, 87, 46, 26, 10, 31, 223, 35, 78, 50, 76, 238, 31, 46, 7, 22, 224, 69, 203, 173, 45, 235, 53, 249, 9, 187, 59, 217, 167, 250, 202, 127, 210, 236, 30, 48, 198, 52, 224, 19, 227, 14, 197, 169, 239, 76, 21, 14, 50, 60, 226, 235, 93, 255, 36, 16, 37, 25, 236, 44, 204, 248, 23, 26, 241, 35, 24, 240, 235, 230, 219, 46, 6, 39, 246, 41, 244, 221, 60, 9, 247, 209, 238, 25, 236, 50, 127, 206, 253, 29, 50, 226, 23, 217, 254, 245, 182, 19, 235, 249, 249, 222, 226, 206, 1, 74, 8, 24, 57, 203, 185, 6, 252, 251, 25, 226, 233, 46, 178, 201, 72, 8, 229, 48, 195, 177, 7, 2, 15, 243, 16, 55, 254, 47, 71, 34, 238, 69, 29, 108, 203, 51, 8, 19, 52, 210, 9, 165, 177, 190, 58, 227, 95, 59, 38, 252, 247, 252, 188, 239, 204, 188, 55, 127, 250, 65, 183, 72, 246, 31, 20, 232, 35, 223, 205, 212, 19, 242, 19, 2, 164, 208, 254, 32, 32, 246, 56, 34, 196, 235, 248, 26, 13, 29, 249, 28, 230, 72, 74, 107, 3, 92, 81, 15, 223, 249, 213, 212, 204, 15, 214, 2, 127, 63, 58, 19, 250, 41, 217, 212, 213, 47, 249, 6, 10, 68, 47, 252, 211, 85, 241, 235, 8, 246, 241, 167, 234, 53, 6, 198, 188, 213, 224, 161, 13, 239, 33, 60, 228, 83, 169, 224, 67, 90, 231, 213, 243, 225, 74, 220, 32, 74, 82, 0, 245, 34, 46, 87, 228, 189, 215, 24, 222, 230, 35, 186, 7, 20, 127, 218, 38, 12, 10, 255, 254, 252, 32, 29, 162, 11, 252, 14, 212, 62, 216, 20, 237, 20, 14, 7, 20, 20, 211, 229, 234, 4, 42, 114, 16, 26, 235, 29, 22, 235, 50, 19, 162, 175, 16, 36, 36, 247, 216, 82, 13, 0, 33, 214, 23, 211, 197, 42, 18, 240, 5, 233, 225, 228, 3, 29, 60, 1, 211, 12, 49, 213, 229, 63, 22, 48, 207, 243, 225, 13, 252, 25, 246, 75, 215, 6, 39, 233, 189, 62, 48, 38, 239, 35, 251, 12, 226, 36, 216, 43, 245, 175, 212, 0, 230, 235, 172, 40, 129, 222, 20, 41, 53, 2, 9, 11, 239, 225, 17, 12, 228, 69, 21, 19, 27, 50, 18, 2, 6, 252, 238, 205, 127, 233, 7, 234, 238, 4, 243, 4, 3, 17, 146, 232, 10, 43, 22, 26, 250, 29, 238, 7, 223, 16, 31, 14, 198, 218, 17, 26, 33, 19, 22, 7, 53, 26, 9, 249, 41, 32, 198, 224, 16, 30, 13, 3, 214, 240, 201, 26, 53, 226, 229, 75, 13, 170, 218, 219, 188, 8, 34, 47, 9, 217, 56, 58, 29, 238, 0, 39, 231, 25, 32, 201, 17, 26, 211, 43, 19, 234, 43, 250, 237, 225, 20, 27, 174, 179, 19, 116, 238, 202, 230, 27, 129, 183, 253, 23, 113, 25, 234, 221, 217, 224, 85, 55, 1, 57, 231, 206, 25, 255, 244, 51, 241, 221, 247, 5, 245, 215, 26, 232, 127, 246, 196, 55, 34, 240, 223, 216, 35, 67, 227, 34, 7, 36, 47, 219, 15, 246, 1, 232, 13, 12, 0, 14, 41, 1, 221, 249, 218, 182, 28, 50, 245, 20, 234, 19, 253, 230, 215, 22, 19, 208, 61, 20, 176, 48, 33, 171, 255, 169, 213, 15, 172, 34, 49, 40, 222, 213, 242, 21, 239, 23, 28, 203, 180, 223, 3, 244, 29, 17, 39, 2, 197, 51, 235, 112, 181, 12, 46, 19, 61, 21, 37, 45, 21, 248, 45, 32, 42, 45, 206, 178, 210, 241, 59, 42, 44, 213, 11, 214, 176, 6, 204, 7, 249, 17, 181, 47, 14, 228, 28, 47, 193, 11, 127, 51, 38, 49, 251, 193, 2, 0, 245, 36, 62, 185, 22, 2, 233, 255, 36, 160, 224, 223, 234, 242, 107, 199, 41, 106, 247, 240, 200, 255, 37, 231, 129, 33, 237, 252, 250, 222, 189, 192, 242, 230, 4, 221, 39, 21, 151, 205, 79, 247, 59, 198, 237, 55, 238, 6, 33, 183, 248, 203, 153, 162, 7, 8, 51, 17, 227, 209, 236, 28, 220, 34, 4, 54, 0, 255, 220, 241, 37, 127, 220, 177, 28, 10, 225, 229, 47, 3, 1, 24, 24, 205, 190, 228, 32, 107, 36, 18, 32, 66, 248, 11, 32, 252, 216, 61, 249, 252, 22, 236, 247, 234, 17, 254, 226, 244, 228, 114, 246, 53, 230, 251, 39, 77, 200, 70, 4, 27, 22, 238, 185, 184, 22, 5, 84, 13, 59, 190, 214, 5, 21, 231, 129, 7, 14, 224, 244, 200, 42, 71, 246, 222, 255, 223, 224, 221, 247, 16, 154, 231, 223, 40, 193, 242, 204, 156, 246, 207, 90, 249, 13, 23, 38, 90, 191, 242, 106, 2, 68, 236, 216, 21, 207, 217, 216, 94, 189, 202, 243, 230, 3, 210, 255, 17, 38, 26, 34, 63, 17, 5, 30, 2, 170, 22, 252, 239, 47, 54, 221, 14, 235, 66, 198, 26, 129, 11, 217, 21, 2, 239, 26, 191, 16, 224, 49, 221, 243, 169, 196, 52, 238, 177, 228, 251, 38, 241, 226, 31, 45, 38, 247, 56, 204, 82, 235, 238, 95, 18, 240, 3, 7, 236, 13, 249, 45, 38, 22, 240, 181, 8, 203, 224, 14, 29, 202, 180, 69, 248, 13, 206, 27, 171, 235, 236, 37, 221, 21, 44, 170, 106, 49, 34, 42, 4, 127, 13, 222, 224, 49, 33, 207, 218, 101, 225, 17, 17, 190, 19, 15, 24, 249, 40, 248, 252, 31, 19, 65, 40, 254, 176, 235, 214, 240, 86, 205, 161, 73, 33, 242, 52, 202, 20, 77, 67, 110, 248, 219, 20, 44, 226, 230, 222, 47, 61, 241, 26, 5, 254, 254, 59, 42, 226, 236, 1, 219, 241, 236, 237, 236, 129, 38, 65, 225, 1, 19, 188, 209, 211, 64, 216, 222, 40, 250, 251, 4, 214, 249, 249, 195, 245, 238, 16, 35, 245, 229, 28, 250, 170, 236, 16, 193, 29, 229, 24, 44, 194, 168, 194, 24, 250, 21, 207, 218, 23, 245, 102, 62, 48, 249, 249, 63, 21, 255, 129, 210, 250, 242, 17, 210, 31, 252, 233, 214, 98, 233, 37, 9, 36, 40, 123, 235, 54, 238, 72, 20, 46, 45, 240, 230, 23, 243, 93, 234, 56, 53, 208, 239, 212, 185, 218, 250, 34, 243, 83, 201, 29, 222, 189, 1, 16, 3, 20, 222, 198, 34, 253, 205, 225, 38, 116, 37, 209, 236, 129, 70, 229, 47, 230, 220, 5, 240, 239, 30, 6, 31, 15, 57, 226, 252, 183, 25, 240, 10, 46, 22, 75, 177, 39, 7, 253, 98, 236, 211, 251, 217, 20, 50, 247, 80, 228, 193, 180, 167, 188, 229, 88, 231, 220, 219, 27, 237, 12, 0, 51, 74, 102, 222, 60, 30, 48, 231, 198, 252, 255, 11, 70, 47, 28, 126, 42, 14, 61, 244, 6, 182, 51, 221, 247, 239, 94, 29, 206, 216, 36, 242, 56, 18, 211, 162, 227, 5, 231, 49, 83, 174, 220, 93, 10, 20, 46, 22, 242, 239, 207, 189, 223, 225, 242, 29, 127, 216, 0, 26, 57, 47, 243, 159, 163, 49, 208, 20, 201, 58, 40, 234, 200, 89, 217, 249, 220, 33, 232, 6, 207, 5, 235, 99, 113, 127, 76, 28, 39, 250, 238, 74, 20, 156, 11, 171, 88, 171, 219, 186, 137, 70, 207, 75, 36, 147, 3, 233, 83, 230, 70, 219, 186, 198, 17, 51, 196, 12, 214, 32, 102, 235, 219, 243, 6, 249, 206, 228, 13, 8, 68, 20, 238, 206, 236, 206, 59, 81, 244, 247, 10, 20, 236, 59, 233, 2, 34, 33, 21, 219, 5, 16, 251, 29, 6, 248, 206, 237, 181, 243, 218, 208, 5, 46, 217, 19, 45, 63, 238, 127, 33, 242, 20, 16, 11, 221, 166, 14, 23, 254, 15, 22, 196, 5, 219, 242, 4, 15, 40, 255, 31, 26, 211, 240, 14, 223, 191, 72, 212, 22, 213, 250, 95, 28, 241, 195, 173, 41, 254, 40, 210, 18, 32, 209, 30, 101, 244, 108, 197, 22, 84, 55, 245, 253, 245, 205, 216, 82, 4, 183, 29, 66, 173, 32, 73, 245, 208, 0, 53, 98, 195, 20, 30, 229, 199, 185, 24, 225, 252, 229, 206, 100, 210, 1, 19, 6, 246, 47, 127, 20, 88, 241, 55, 38, 39, 4, 252, 222, 2, 62, 221, 29, 7, 178, 91, 14, 127, 8, 217, 191, 196, 224, 215, 226, 250, 4, 5, 245, 255, 37, 248, 205, 21, 26, 212, 239, 204, 10, 35, 210, 205, 61, 28, 170, 4, 235, 23, 67, 58, 55, 27, 16, 239, 53, 41, 236, 8, 43, 23, 21, 221, 188, 242, 18, 63, 189, 2, 243, 12, 56, 215, 3, 18, 48, 82, 233, 239, 1, 248, 211, 227, 16, 20, 187, 52, 244, 253, 233, 215, 101, 96, 28, 31, 37, 14, 207, 13, 86, 236, 202, 20, 255, 129, 247, 19, 6, 41, 196, 251, 18, 202, 241, 20, 244, 17, 19, 231, 173, 40, 45, 55, 6, 13, 37, 253, 233, 194, 2, 21, 55, 27, 1, 233, 6, 14, 25, 41, 87, 112, 9, 12, 160, 211, 167, 249, 198, 1, 59, 250, 224, 254, 208, 213, 221, 25, 229, 220, 85, 11, 227, 255, 254, 251, 52, 127, 215, 17, 46, 31, 247, 25, 239, 227, 247, 184, 225, 35, 235, 173, 210, 52, 232, 34, 11, 105, 235, 53, 212, 179, 206, 227, 26, 53, 89, 44, 247, 46, 78, 235, 241, 222, 240, 253, 11, 0, 46, 207, 20, 32, 26, 13, 223, 31, 251, 232, 234, 91, 31, 3, 70, 127, 8, 42, 188, 231, 36, 8, 41, 220, 235, 250, 238, 249, 11, 246, 240, 246, 206, 18, 232, 1, 241, 23, 177, 254, 244, 251, 89, 78, 238, 10, 11, 10, 48, 8, 109, 223, 214, 131, 49, 158, 180, 190, 73, 247, 225, 12, 235, 19, 213, 37, 93, 14, 188, 31, 143, 232, 224, 249, 199, 145, 35, 253, 33, 40, 24, 188, 18, 227, 92, 209, 226, 21, 251, 254, 52, 96, 24, 82, 52, 207, 228, 8, 189, 2, 41, 15, 247, 236, 135, 10, 9, 41, 211, 232, 38, 2, 129, 216, 252, 165, 198, 86, 247, 10, 7, 11, 201, 127, 2, 204, 112, 247, 237, 61, 204, 245, 249, 0, 85, 172, 57, 233, 53, 192, 205, 7, 218, 198, 61, 227, 44, 15, 24, 17, 19, 24, 22, 84, 171, 200, 34, 41, 25, 129, 24, 157, 226, 103, 201, 253, 253, 240, 18, 6, 145, 190, 35, 232, 60, 186, 179, 10, 228, 64, 214, 221, 241, 47, 2, 16, 242, 46, 127, 243, 201, 58, 203, 26, 209, 225, 27, 253, 72, 58, 248, 60, 239, 19, 21, 206, 248, 223, 6, 47, 242, 25, 218, 44, 18, 236, 32, 237, 30, 13, 48, 13, 219, 73, 51, 19, 186, 208, 59, 248, 90, 33, 34, 30, 214, 229, 18, 231, 191, 75, 233, 23, 225, 57, 187, 250, 33, 247, 166, 190, 224, 186, 25, 127, 17, 255, 255, 49, 19, 235, 120, 24, 245, 227, 32, 244, 253, 194, 213, 76, 226, 249, 12, 181, 196, 213, 67, 187, 209, 107, 11, 199, 75, 25, 187, 19, 20, 29, 49, 204, 37, 85, 243, 210, 125, 173, 160, 109, 221, 168, 27, 193, 244, 165, 157, 11, 226, 35, 225, 209, 2, 199, 32, 163, 28, 129, 32, 88, 3, 13, 58, 226, 81, 253, 84, 103, 245, 60, 254, 50, 19, 242, 228, 236, 252, 49, 199, 218, 14, 253, 77, 211, 79, 49, 133, 216, 93, 61, 69, 57, 62, 74, 250, 119, 24, 252, 119, 230, 186, 51, 203, 37, 100, 35, 219, 199, 219, 16, 26, 27, 14, 25, 217, 36, 241, 127, 58, 19, 253, 41, 67, 9, 243, 190, 13, 238, 192, 204, 24, 142, 29, 67, 230, 51, 22, 205, 229, 245, 48, 48, 242, 78, 217, 12, 248, 47, 184, 8, 13, 218, 35, 77, 238, 11, 193, 53, 197, 195, 172, 35, 56, 243, 30, 238, 239, 13, 202, 243, 191, 26, 70, 17, 201, 189, 222, 194, 85, 38, 189, 187, 5, 228, 235, 237, 138, 163, 127, 147, 29, 250, 205, 27, 251, 213, 218, 30, 211, 201, 1, 43, 5, 187, 203, 45, 10, 28, 11, 149, 247, 167, 64, 28, 33, 80, 159, 213, 241, 7, 8, 175, 30, 255, 36, 30, 211, 9, 227, 12, 6, 195, 28, 141, 232, 22, 44, 239, 53, 85, 24, 114, 0, 215, 16, 4, 223, 206, 224, 253, 129, 255, 248, 13, 236, 243, 17, 245, 19, 15, 210, 21, 236, 14, 186, 21, 25, 51, 207, 44, 247, 250, 192, 7, 217, 253, 71, 1, 204, 55, 68, 196, 204, 206, 247, 52, 6, 32, 41, 16, 197, 236, 162, 219, 98, 162, 9, 5, 222, 3, 247, 31, 12, 147, 22, 60, 237, 38, 2, 231, 70, 213, 231, 16, 68, 62, 166, 223, 170, 197, 37, 251, 46, 232, 252, 254, 9, 246, 227, 65, 198, 20, 237, 63, 48, 98, 208, 2, 25, 8, 187, 69, 129, 194, 51, 183, 201, 240, 67, 232, 31, 139, 168, 220, 240, 215, 41, 27, 196, 51, 244, 55, 26, 1, 10, 10, 232, 171, 251, 33, 180, 214, 79, 185, 196, 7, 246, 239, 43, 103, 129, 42, 221, 245, 31, 28, 65, 231, 205, 205, 240, 15, 234, 13, 247, 32, 185, 178, 250, 221, 227, 23, 3, 227, 37, 28, 221, 28, 236, 31, 240, 24, 0, 52, 18, 243, 98, 31, 245, 225, 251, 206, 78, 56, 209, 158, 23, 244, 240, 248, 163, 201, 240, 46, 2, 0, 20, 171, 35, 215, 9, 233, 199, 247, 252, 242, 207, 215, 30, 31, 126, 29, 35, 249, 219, 213, 185, 61, 250, 56, 194, 58, 244, 17, 160, 222, 254, 187, 52, 41, 191, 218, 6, 28, 199, 237, 23, 30, 23, 240, 21, 227, 129, 31, 217, 63, 15, 17, 39, 27, 28, 30, 31, 7, 16, 252, 184, 2, 15, 11, 222, 247, 7, 38, 2, 26, 208, 222, 32, 64, 249, 159, 185, 227, 15, 187, 20, 19, 88, 253, 31, 42, 5, 163, 181, 2, 15, 0, 21, 237, 193, 0, 208, 200, 208, 31, 29, 84, 210, 50, 45, 49, 119, 241, 9, 192, 232, 197, 48, 224, 129, 220, 156, 171, 248, 195, 242, 72, 26, 49, 7, 108, 36, 64, 49, 38, 21, 237, 40, 200, 11, 71, 205, 179, 248, 152, 153, 72, 38, 227, 0, 241, 72, 74, 205, 41, 21, 36, 9, 116, 43, 7, 217, 26, 41, 64, 51, 76, 174, 141, 62, 67, 212, 8, 215, 55, 32, 25, 129, 217, 20, 231, 193, 30, 153, 111, 73, 85, 22, 223, 224, 247, 32, 241, 23, 41, 235, 207, 41, 247, 183, 79, 6, 32, 205, 16, 237, 55, 245, 21, 183, 222, 179, 212, 254, 26, 254, 49, 235, 201, 80, 194, 231, 129, 22, 200, 42, 251, 5, 234, 17, 209, 37, 235, 225, 208, 247, 230, 228, 61, 38, 213, 202, 37, 0, 2, 24, 169, 179, 86, 182, 216, 215, 181, 74, 39, 29, 207, 2, 31, 52, 22, 229, 58, 111, 2, 210, 2, 24, 129, 35, 55, 231, 36, 159, 226, 202, 38, 43, 27, 29, 9, 235, 11, 2, 216, 38, 212, 247, 29, 45, 25, 17, 48, 56, 200, 17, 32, 217, 206, 70, 70, 13, 50, 48, 23, 163, 142, 53, 252, 75, 251, 250, 197, 2, 168, 47, 190, 188, 46, 204, 48, 244, 241, 227, 225, 64, 41, 199, 250, 17, 233, 225, 216, 40, 229, 25, 223, 21, 228, 48, 129, 4, 252, 64, 227, 243, 35, 211, 4, 207, 239, 250, 225, 41, 9, 187, 21, 254, 17, 214, 18, 19, 85, 12, 227, 34, 15, 27, 44, 207, 9, 217, 197, 233, 254, 172, 5, 158, 235, 197, 228, 238, 234, 234, 244, 98, 106, 254, 255, 4, 0, 0, 0, 0, 2, 0, 0, 129, 112, 70, 190, 231, 142, 40, 62, 203, 168, 142, 190, 147, 139, 124, 190, 115, 165, 234, 188, 99, 29, 227, 189, 185, 237, 143, 190, 50, 43, 9, 190, 217, 49, 224, 189, 5, 6, 129, 189, 198, 218, 137, 190, 118, 178, 93, 189, 112, 18, 212, 189, 35, 174, 152, 190, 33, 92, 45, 189, 29, 188, 151, 190, 6, 204, 112, 190, 51, 49, 133, 188, 251, 220, 116, 60, 199, 23, 33, 190, 114, 228, 133, 190, 61, 250, 106, 190, 236, 5, 3, 190, 156, 242, 140, 190, 2, 232, 170, 189, 74, 234, 70, 190, 20, 130, 11, 189, 29, 38, 92, 190, 211, 44, 25, 190, 114, 168, 145, 190, 226, 154, 185, 189, 31, 109, 107, 190, 51, 139, 120, 63, 87, 133, 172, 63, 157, 209, 153, 63, 54, 54, 121, 63, 251, 6, 161, 63, 109, 166, 160, 63, 235, 125, 182, 63, 164, 95, 148, 63, 98, 156, 138, 63, 253, 127, 165, 63, 238, 155, 131, 63, 166, 239, 163, 63, 32, 207, 160, 63, 98, 17, 165, 63, 16, 171, 141, 63, 12, 235, 146, 63, 169, 178, 169, 63, 154, 140, 138, 63, 3, 225, 154, 63, 62, 100, 163, 63, 112, 252, 167, 63, 245, 37, 134, 63, 115, 236, 166, 63, 35, 247, 148, 63, 251, 130, 147, 63, 192, 5, 152, 63, 177, 251, 134, 63, 195, 195, 156, 63, 119, 227, 145, 63, 157, 120, 99, 63, 174, 252, 175, 63, 77, 144, 148, 63, 98, 194, 39, 61, 218, 72, 121, 188, 194, 235, 228, 60, 96, 153, 33, 189, 24, 134, 220, 60, 215, 139, 22, 188, 252, 57, 21, 61, 203, 243, 118, 60, 237, 152, 142, 189, 149, 247, 222, 189, 30, 148, 246, 60, 81, 81, 2, 62, 131, 140, 157, 189, 175, 35, 197, 189, 156, 131, 168, 61, 249, 201, 121, 189, 50, 19, 122, 61, 138, 250, 153, 188, 20, 0, 213, 188, 72, 230, 118, 188, 183, 107, 247, 60, 0, 111, 14, 62, 140, 161, 185, 188, 223, 111, 144, 61, 205, 45, 129, 188, 87, 55, 211, 60, 111, 190, 87, 61, 84, 124, 48, 190, 48, 0, 243, 189, 206, 98, 139, 187, 3, 160, 191, 60, 124, 166, 22, 190, 152, 207, 18, 60, 197, 107, 144, 61, 56, 254, 137, 188, 105, 70, 153, 61, 153, 174, 23, 190, 22, 209, 230, 60, 110, 112, 182, 61, 67, 135, 98, 189, 173, 21, 33, 61, 29, 185, 209, 61, 22, 61, 204, 189, 20, 130, 207, 189, 178, 70, 121, 62, 157, 98, 210, 61, 247, 13, 159, 60, 158, 252, 29, 61, 205, 239, 43, 61, 217, 182, 17, 189, 127, 52, 190, 60, 38, 64, 115, 188, 48, 119, 149, 61, 196, 241, 7, 188, 20, 147, 146, 61, 215, 9, 15, 189, 101, 53, 12, 61, 88, 28, 26, 62, 61, 240, 243, 188, 107, 25, 30, 189, 195, 168, 23, 62, 101, 112, 9, 190, 160, 15, 191, 62, 128, 194, 39, 188, 124, 59, 254, 255, 128, 59, 254, 255, 132, 59, 254, 255, 136, 59, 254, 255, 140, 59, 254, 255, 144, 59, 254, 255, 148, 59, 254, 255, 152, 59, 254, 255, 156, 59, 254, 255, 160, 59, 254, 255, 164, 59, 254, 255, 168, 59, 254, 255, 172, 59, 254, 255, 176, 59, 254, 255, 180, 59, 254, 255, 184, 59, 254, 255, 188, 59, 254, 255, 192, 59, 254, 255, 196, 59, 254, 255, 200, 59, 254, 255, 204, 59, 254, 255, 208, 59, 254, 255, 212, 59, 254, 255, 216, 59, 254, 255, 220, 59, 254, 255, 224, 59, 254, 255, 228, 59, 254, 255, 232, 59, 254, 255, 236, 59, 254, 255, 240, 59, 254, 255, 244, 59, 254, 255, 248, 59, 254, 255, 252, 59, 254, 255, 0, 60, 254, 255, 4, 60, 254, 255, 8, 60, 254, 255, 12, 60, 254, 255, 16, 60, 254, 255, 20, 60, 254, 255, 10, 109, 254, 255, 4, 0, 0, 0, 0, 64, 0, 0, 255, 94, 222, 56, 223, 38, 19, 157, 180, 24, 24, 50, 12, 58, 30, 64, 11, 5, 16, 59, 233, 39, 235, 249, 7, 192, 8, 32, 47, 228, 223, 232, 210, 224, 67, 227, 227, 218, 59, 207, 181, 205, 49, 14, 4, 216, 241, 3, 9, 252, 127, 234, 44, 1, 247, 240, 62, 217, 27, 214, 21, 255, 186, 236, 247, 49, 38, 18, 63, 243, 207, 26, 35, 247, 189, 230, 237, 237, 23, 18, 107, 85, 254, 3, 17, 245, 241, 18, 209, 60, 13, 4, 242, 241, 213, 246, 195, 10, 206, 235, 23, 11, 250, 12, 239, 21, 238, 236, 203, 39, 3, 54, 38, 248, 223, 225, 210, 52, 127, 214, 217, 21, 233, 64, 201, 247, 245, 39, 235, 28, 9, 240, 59, 11, 252, 17, 229, 243, 48, 12, 179, 32, 19, 255, 186, 241, 129, 255, 198, 246, 15, 250, 215, 249, 24, 52, 38, 188, 5, 11, 63, 0, 72, 2, 31, 16, 237, 53, 197, 28, 16, 32, 15, 40, 0, 26, 230, 8, 13, 251, 22, 212, 252, 39, 246, 243, 241, 186, 53, 50, 195, 251, 14, 221, 8, 56, 14, 73, 65, 39, 44, 59, 172, 135, 58, 153, 11, 15, 104, 240, 30, 167, 58, 219, 87, 239, 106, 30, 232, 32, 247, 183, 35, 97, 86, 197, 183, 5, 251, 44, 81, 13, 7, 0, 183, 169, 247, 222, 15, 222, 200, 234, 131, 54, 215, 3, 246, 232, 73, 97, 227, 122, 252, 229, 127, 29, 84, 232, 236, 211, 54, 5, 200, 235, 39, 92, 203, 63, 240, 247, 23, 241, 48, 46, 129, 12, 178, 232, 192, 60, 200, 3, 2, 194, 210, 196, 246, 220, 115, 255, 17, 17, 52, 206, 18, 50, 50, 234, 3, 209, 198, 61, 193, 240, 87, 43, 224, 54, 207, 141, 68, 223, 206, 10, 237, 62, 57, 213, 247, 226, 12, 186, 208, 228, 33, 174, 149, 208, 21, 7, 245, 11, 206, 8, 242, 33, 238, 213, 212, 248, 232, 163, 13, 191, 21, 213, 225, 237, 252, 8, 37, 24, 239, 158, 39, 237, 212, 31, 34, 13, 1, 184, 252, 2, 28, 215, 37, 243, 29, 54, 215, 51, 101, 183, 179, 32, 209, 129, 247, 250, 37, 246, 252, 193, 6, 209, 129, 180, 13, 172, 161, 2, 60, 215, 101, 10, 175, 3, 27, 217, 150, 141, 14, 29, 251, 21, 72, 74, 30, 159, 37, 250, 203, 170, 231, 16, 58, 21, 226, 63, 139, 236, 52, 218, 38, 3, 227, 5, 231, 71, 63, 230, 212, 238, 205, 209, 49, 198, 217, 73, 155, 207, 224, 182, 244, 53, 189, 0, 49, 89, 195, 9, 32, 37, 240, 190, 19, 44, 193, 36, 20, 209, 223, 56, 129, 82, 218, 19, 198, 46, 7, 51, 187, 225, 62, 79, 79, 50, 83, 206, 6, 117, 42, 169, 246, 234, 8, 172, 13, 17, 116, 35, 162, 10, 41, 166, 226, 56, 49, 46, 224, 235, 30, 127, 248, 81, 74, 253, 232, 4, 12, 193, 54, 6, 177, 229, 20, 235, 29, 228, 38, 231, 215, 19, 225, 39, 235, 32, 244, 35, 230, 31, 241, 244, 230, 25, 244, 232, 43, 253, 74, 246, 31, 231, 39, 6, 51, 227, 223, 220, 249, 210, 228, 5, 127, 221, 240, 14, 253, 228, 19, 16, 39, 16, 8, 239, 48, 30, 41, 33, 17, 254, 25, 236, 2, 216, 83, 250, 235, 49, 245, 251, 253, 195, 42, 213, 175, 230, 5, 57, 212, 89, 153, 3, 249, 171, 221, 74, 238, 49, 15, 196, 83, 235, 59, 244, 74, 80, 185, 104, 26, 29, 157, 176, 45, 187, 9, 180, 22, 228, 197, 218, 217, 243, 225, 64, 6, 43, 230, 129, 18, 235, 11, 55, 22, 26, 61, 255, 238, 40, 4, 30, 172, 41, 246, 89, 231, 200, 242, 58, 49, 1, 4, 17, 245, 102, 1, 20, 227, 174, 24, 233, 1, 48, 28, 129, 16, 207, 5, 18, 249, 242, 19, 242, 45, 194, 211, 3, 52, 236, 242, 216, 33, 1, 179, 244, 218, 229, 42, 68, 55, 237, 15, 234, 58, 3, 242, 250, 12, 2, 0, 219, 207, 251, 60, 38, 220, 27, 14, 208, 153, 185, 225, 242, 1, 49, 25, 48, 242, 76, 22, 127, 246, 65, 11, 6, 246, 11, 252, 192, 23, 250, 248, 9, 255, 170, 230, 235, 6, 187, 16, 38, 13, 36, 243, 21, 18, 30, 176, 226, 235, 236, 94, 94, 235, 237, 250, 215, 47, 225, 212, 16, 4, 7, 254, 218, 193, 242, 9, 19, 32, 25, 208, 76, 8, 240, 216, 225, 253, 220, 214, 212, 58, 34, 232, 7, 11, 241, 243, 127, 225, 4, 24, 228, 27, 229, 30, 16, 191, 60, 23, 217, 234, 63, 59, 254, 12, 237, 20, 29, 253, 167, 181, 183, 2, 13, 234, 82, 30, 228, 245, 218, 9, 21, 48, 234, 14, 38, 242, 229, 31, 243, 238, 216, 240, 243, 48, 190, 209, 247, 6, 242, 49, 16, 57, 58, 19, 54, 38, 9, 216, 88, 8, 129, 40, 1, 208, 213, 241, 9, 204, 241, 206, 201, 239, 216, 34, 217, 219, 47, 241, 225, 211, 30, 242, 41, 22, 17, 88, 52, 35, 52, 250, 31, 23, 68, 166, 238, 244, 211, 11, 155, 238, 7, 207, 29, 57, 48, 37, 16, 242, 0, 226, 76, 236, 33, 15, 8, 33, 203, 239, 192, 6, 242, 237, 226, 238, 6, 244, 26, 175, 253, 79, 239, 203, 224, 15, 27, 251, 254, 129, 22, 28, 195, 241, 51, 70, 194, 1, 155, 249, 14, 231, 246, 232, 56, 239, 28, 176, 152, 84, 25, 240, 100, 192, 116, 33, 236, 40, 21, 49, 32, 186, 0, 7, 16, 244, 7, 7, 28, 188, 2, 189, 169, 244, 236, 129, 80, 2, 224, 243, 112, 12, 3, 183, 1, 114, 77, 103, 16, 25, 46, 245, 42, 235, 46, 211, 210, 232, 138, 8, 226, 39, 250, 218, 71, 53, 224, 172, 74, 247, 42, 198, 255, 25, 75, 29, 93, 28, 53, 28, 91, 15, 223, 213, 208, 102, 209, 166, 54, 92, 221, 73, 196, 74, 207, 212, 195, 80, 54, 77, 51, 32, 63, 242, 7, 226, 247, 38, 127, 46, 217, 20, 27, 197, 58, 231, 5, 21, 37, 100, 202, 217, 65, 208, 22, 31, 200, 80, 20, 9, 92, 2, 37, 57, 21, 249, 91, 62, 165, 61, 64, 193, 212, 255, 44, 246, 76, 249, 208, 10, 241, 244, 3, 240, 247, 26, 243, 16, 218, 1, 3, 23, 61, 43, 39, 237, 47, 30, 208, 0, 41, 251, 32, 201, 19, 2, 246, 240, 27, 221, 51, 242, 40, 235, 129, 246, 8, 247, 11, 18, 193, 79, 242, 104, 8, 199, 34, 6, 26, 216, 25, 50, 218, 26, 60, 2, 48, 253, 52, 69, 54, 255, 208, 195, 185, 183, 245, 237, 218, 79, 9, 60, 193, 5, 22, 3, 23, 3, 212, 12, 48, 198, 252, 41, 90, 3, 229, 56, 5, 18, 223, 179, 24, 53, 129, 254, 96, 210, 10, 39, 0, 243, 254, 4, 21, 26, 40, 56, 33, 204, 31, 8, 246, 57, 195, 243, 56, 251, 226, 217, 228, 223, 245, 247, 245, 28, 204, 253, 186, 164, 255, 204, 252, 214, 146, 92, 221, 5, 218, 80, 231, 21, 201, 196, 107, 58, 216, 29, 14, 45, 226, 8, 193, 229, 9, 129, 199, 79, 218, 236, 42, 68, 244, 194, 47, 214, 20, 5, 57, 103, 205, 22, 120, 217, 2, 39, 172, 54, 245, 168, 16, 84, 181, 211, 186, 241, 249, 255, 28, 224, 38, 202, 38, 154, 33, 114, 212, 232, 17, 225, 242, 24, 220, 66, 238, 205, 254, 253, 36, 10, 54, 248, 16, 251, 247, 39, 237, 61, 253, 232, 207, 221, 19, 9, 228, 215, 42, 36, 129, 9, 254, 222, 35, 173, 229, 18, 25, 221, 226, 10, 15, 214, 30, 10, 226, 67, 51, 8, 10, 226, 237, 252, 241, 33, 240, 216, 25, 28, 171, 147, 14, 33, 57, 252, 0, 243, 87, 68, 83, 27, 113, 168, 78, 232, 243, 225, 140, 54, 149, 245, 13, 18, 17, 181, 203, 168, 211, 16, 210, 228, 246, 73, 52, 192, 53, 16, 239, 14, 227, 13, 37, 211, 33, 211, 8, 59, 215, 160, 127, 226, 237, 233, 195, 49, 4, 225, 5, 104, 6, 216, 179, 209, 23, 229, 52, 67, 29, 236, 16, 229, 226, 214, 197, 208, 9, 221, 206, 222, 19, 242, 93, 204, 51, 27, 248, 36, 68, 9, 247, 50, 73, 221, 1, 231, 222, 25, 206, 30, 15, 127, 238, 185, 30, 191, 213, 235, 65, 0, 21, 167, 220, 67, 247, 183, 106, 228, 45, 30, 223, 56, 157, 37, 19, 233, 232, 222, 211, 211, 215, 7, 15, 14, 12, 157, 71, 242, 38, 213, 86, 167, 37, 234, 194, 238, 201, 242, 226, 88, 85, 111, 41, 220, 232, 208, 193, 69, 216, 224, 204, 35, 30, 129, 17, 33, 74, 25, 14, 205, 42, 241, 70, 74, 38, 218, 239, 211, 80, 66, 1, 64, 163, 48, 23, 188, 3, 234, 47, 237, 61, 126, 173, 28, 22, 58, 50, 203, 29, 26, 8, 173, 17, 6, 8, 227, 4, 54, 217, 241, 9, 248, 248, 14, 102, 226, 211, 122, 35, 212, 103, 9, 230, 205, 57, 255, 51, 207, 164, 198, 243, 226, 13, 79, 129, 13, 14, 204, 53, 203, 1, 52, 175, 179, 123, 72, 40, 216, 234, 191, 174, 43, 68, 172, 231, 244, 207, 165, 183, 22, 47, 244, 83, 225, 250, 210, 53, 129, 207, 242, 230, 203, 7, 40, 96, 209, 11, 77, 42, 20, 250, 85, 19, 0, 20, 10, 251, 144, 40, 20, 168, 1, 244, 12, 73, 219, 93, 10, 223, 20, 53, 21, 6, 0, 237, 85, 87, 195, 84, 39, 14, 237, 89, 164, 181, 250, 72, 201, 43, 17, 4, 43, 184, 176, 11, 40, 59, 239, 94, 2, 2, 51, 46, 207, 126, 201, 238, 202, 215, 223, 206, 24, 87, 53, 237, 43, 205, 235, 28, 76, 217, 240, 69, 241, 0, 220, 5, 20, 56, 12, 241, 194, 6, 240, 32, 39, 29, 236, 3, 129, 71, 51, 250, 88, 235, 162, 240, 192, 222, 221, 4, 4, 245, 16, 201, 222, 6, 229, 217, 173, 217, 254, 193, 16, 208, 106, 11, 45, 200, 4, 225, 228, 29, 5, 187, 12, 228, 204, 196, 11, 231, 241, 44, 198, 225, 150, 214, 222, 34, 33, 34, 178, 249, 187, 241, 80, 47, 62, 213, 35, 19, 28, 230, 127, 175, 151, 229, 192, 40, 31, 61, 231, 255, 253, 238, 246, 236, 202, 241, 228, 219, 31, 12, 55, 241, 218, 40, 248, 34, 0, 244, 129, 77, 211, 17, 1, 50, 239, 191, 54, 19, 79, 239, 237, 224, 56, 246, 28, 245, 194, 216, 252, 255, 196, 220, 237, 28, 221, 236, 36, 253, 249, 64, 40, 222, 19, 219, 78, 1, 49, 8, 255, 243, 224, 229, 9, 197, 30, 203, 66, 40, 39, 215, 217, 1, 25, 248, 152, 26, 19, 244, 185, 250, 45, 7, 217, 215, 202, 248, 204, 222, 226, 27, 15, 37, 24, 0, 241, 35, 21, 250, 25, 11, 6, 194, 219, 84, 1, 234, 245, 218, 243, 216, 247, 214, 251, 239, 190, 5, 223, 189, 20, 229, 82, 127, 20, 228, 64, 61, 6, 17, 52, 247, 15, 196, 129, 252, 31, 255, 104, 34, 195, 3, 30, 187, 16, 5, 6, 8, 194, 206, 236, 112, 43, 43, 25, 2, 61, 170, 8, 75, 55, 42, 84, 42, 150, 40, 220, 156, 49, 2, 75, 208, 241, 185, 166, 34, 23, 6, 31, 78, 1, 9, 216, 155, 85, 248, 214, 53, 194, 113, 253, 52, 64, 191, 75, 240, 219, 254, 216, 18, 232, 198, 7, 210, 239, 239, 18, 205, 33, 38, 30, 102, 245, 206, 201, 40, 5, 248, 1, 228, 88, 182, 233, 102, 215, 252, 245, 129, 238, 50, 253, 162, 71, 19, 33, 183, 36, 172, 54, 226, 244, 236, 236, 67, 56, 57, 166, 166, 5, 215, 235, 237, 2, 69, 67, 249, 65, 194, 240, 67, 44, 251, 13, 188, 209, 92, 253, 48, 165, 250, 220, 30, 56, 235, 73, 52, 47, 170, 72, 189, 16, 48, 234, 226, 129, 78, 158, 53, 229, 58, 13, 10, 170, 8, 254, 44, 187, 39, 40, 117, 246, 211, 77, 49, 12, 79, 50, 22, 161, 8, 230, 103, 49, 229, 174, 248, 219, 12, 222, 37, 65, 13, 239, 28, 4, 243, 13, 5, 6, 75, 18, 101, 46, 5, 221, 243, 67, 231, 251, 250, 191, 23, 40, 203, 241, 255, 52, 58, 131, 68, 208, 232, 188, 15, 241, 17, 14, 50, 32, 87, 109, 59, 185, 244, 148, 13, 57, 3, 222, 80, 14, 211, 2, 19, 221, 127, 242, 244, 18, 54, 244, 202, 232, 251, 251, 226, 29, 234, 215, 15, 189, 29, 17, 141, 248, 244, 229, 52, 54, 81, 2, 80, 36, 115, 0, 108, 7, 250, 30, 27, 4, 238, 45, 205, 26, 21, 218, 10, 13, 247, 232, 192, 10, 208, 34, 170, 249, 19, 24, 36, 242, 129, 246, 196, 36, 78, 81, 250, 21, 181, 216, 216, 19, 24, 226, 228, 242, 221, 248, 238, 28, 2, 223, 46, 127, 161, 188, 198, 13, 58, 0, 38, 12, 72, 44, 59, 64, 106, 210, 112, 16, 146, 218, 45, 245, 13, 14, 39, 229, 59, 0, 213, 175, 20, 59, 240, 95, 41, 229, 210, 21, 57, 25, 37, 6, 25, 176, 90, 78, 63, 193, 54, 223, 71, 192, 205, 158, 236, 40, 210, 239, 212, 203, 47, 37, 208, 15, 18, 171, 81, 4, 231, 238, 39, 24, 232, 63, 43, 74, 35, 74, 21, 231, 44, 241, 13, 252, 38, 9, 211, 17, 224, 45, 28, 198, 236, 241, 199, 52, 7, 127, 2, 46, 69, 18, 218, 251, 182, 251, 198, 228, 42, 195, 42, 72, 48, 28, 246, 58, 166, 34, 228, 132, 216, 249, 180, 221, 9, 28, 38, 4, 43, 208, 6, 241, 2, 19, 50, 74, 242, 12, 1, 24, 236, 32, 66, 129, 46, 237, 8, 242, 232, 25, 160, 254, 29, 14, 253, 21, 15, 150, 5, 10, 225, 95, 41, 230, 203, 229, 241, 184, 236, 214, 0, 213, 9, 242, 88, 8, 3, 254, 14, 170, 19, 46, 97, 11, 40, 208, 183, 218, 223, 231, 127, 166, 5, 216, 22, 19, 219, 208, 29, 18, 62, 11, 65, 247, 45, 146, 16, 205, 113, 205, 38, 243, 39, 254, 201, 46, 19, 109, 55, 236, 11, 247, 71, 13, 254, 207, 174, 42, 200, 225, 230, 51, 22, 189, 234, 250, 254, 240, 40, 113, 1, 54, 185, 111, 45, 90, 237, 35, 242, 32, 54, 206, 212, 65, 51, 135, 58, 210, 82, 235, 242, 205, 5, 50, 47, 223, 6, 234, 83, 36, 77, 210, 86, 237, 218, 11, 223, 4, 200, 9, 55, 127, 26, 11, 24, 192, 8, 44, 215, 198, 25, 33, 21, 190, 218, 39, 79, 234, 28, 194, 253, 40, 26, 81, 37, 5, 13, 16, 82, 124, 247, 63, 22, 24, 228, 231, 247, 55, 249, 185, 30, 28, 13, 250, 200, 60, 78, 246, 29, 206, 42, 192, 77, 71, 3, 215, 29, 171, 230, 16, 36, 142, 198, 71, 244, 251, 43, 54, 214, 184, 45, 22, 245, 206, 246, 83, 249, 225, 24, 63, 250, 202, 174, 248, 168, 55, 126, 47, 127, 170, 204, 2, 30, 209, 247, 22, 0, 69, 211, 4, 219, 127, 37, 223, 247, 221, 85, 84, 77, 250, 4, 251, 16, 3, 243, 45, 74, 250, 32, 10, 16, 181, 95, 251, 2, 53, 30, 250, 183, 55, 5, 228, 254, 52, 57, 237, 23, 234, 22, 8, 1, 11, 236, 20, 8, 8, 22, 237, 28, 190, 37, 164, 230, 74, 212, 153, 118, 86, 15, 168, 254, 41, 216, 9, 232, 11, 218, 233, 239, 187, 24, 22, 194, 4, 249, 205, 157, 7, 55, 249, 25, 248, 40, 219, 81, 158, 216, 237, 42, 251, 13, 54, 244, 102, 81, 236, 243, 1, 247, 71, 209, 12, 163, 88, 181, 148, 237, 54, 26, 187, 214, 46, 181, 246, 29, 227, 10, 152, 207, 237, 43, 77, 127, 76, 226, 7, 47, 245, 201, 227, 40, 247, 227, 232, 56, 74, 198, 237, 233, 85, 6, 220, 219, 67, 44, 62, 191, 71, 200, 25, 212, 10, 63, 47, 189, 233, 254, 160, 225, 225, 8, 60, 218, 244, 44, 16, 181, 202, 254, 41, 238, 190, 212, 127, 14, 242, 29, 245, 212, 27, 213, 68, 241, 74, 85, 213, 196, 230, 248, 198, 56, 207, 63, 21, 129, 2, 243, 248, 222, 7, 238, 43, 180, 195, 238, 193, 1, 238, 6, 36, 223, 3, 149, 221, 224, 7, 239, 241, 222, 96, 249, 244, 205, 37, 4, 245, 238, 25, 23, 22, 217, 26, 30, 6, 153, 230, 247, 49, 231, 92, 9, 190, 46, 237, 237, 74, 182, 9, 227, 204, 177, 20, 48, 74, 253, 222, 208, 22, 28, 230, 3, 202, 38, 87, 214, 21, 224, 198, 41, 7, 255, 38, 247, 250, 245, 241, 71, 212, 30, 3, 89, 254, 229, 65, 240, 126, 231, 172, 1, 239, 59, 251, 218, 144, 152, 46, 129, 19, 48, 111, 196, 170, 73, 68, 252, 226, 81, 67, 4, 228, 194, 97, 29, 62, 37, 14, 40, 184, 62, 75, 211, 231, 4, 35, 229, 205, 82, 91, 240, 78, 15, 43, 63, 252, 9, 5, 243, 50, 231, 90, 12, 32, 127, 34, 6, 224, 201, 243, 221, 15, 204, 5, 80, 11, 33, 232, 68, 6, 43, 53, 179, 34, 45, 213, 76, 251, 182, 75, 249, 159, 139, 173, 255, 39, 75, 146, 58, 248, 74, 7, 200, 203, 70, 185, 74, 2, 111, 33, 230, 255, 235, 19, 230, 4, 243, 210, 41, 10, 22, 14, 44, 243, 255, 176, 68, 254, 29, 241, 254, 207, 247, 26, 56, 20, 248, 236, 220, 11, 39, 17, 2, 30, 168, 252, 240, 38, 84, 33, 255, 213, 37, 35, 155, 249, 127, 24, 43, 14, 8, 212, 28, 58, 4, 250, 206, 222, 219, 215, 54, 44, 210, 21, 86, 5, 246, 223, 33, 253, 23, 186, 176, 8, 34, 27, 52, 56, 127, 215, 13, 230, 187, 211, 169, 228, 99, 43, 65, 66, 48, 160, 43, 169, 180, 226, 246, 201, 214, 60, 60, 232, 7, 233, 227, 218, 246, 195, 91, 27, 22, 189, 75, 7, 248, 249, 33, 0, 19, 227, 246, 93, 45, 54, 239, 27, 247, 146, 54, 109, 212, 221, 246, 14, 255, 249, 47, 186, 233, 210, 74, 253, 127, 215, 234, 185, 5, 226, 171, 149, 204, 38, 93, 58, 62, 52, 33, 167, 3, 246, 0, 154, 232, 89, 220, 140, 221, 251, 202, 43, 247, 36, 223, 231, 82, 200, 78, 146, 224, 8, 88, 4, 51, 82, 14, 39, 15, 169, 228, 234, 227, 249, 253, 245, 21, 233, 218, 29, 61, 34, 51, 21, 219, 209, 213, 186, 180, 252, 216, 4, 72, 248, 205, 244, 38, 4, 57, 4, 11, 72, 40, 229, 203, 238, 220, 228, 13, 244, 255, 219, 220, 13, 22, 224, 238, 42, 129, 253, 4, 236, 36, 251, 203, 12, 17, 211, 26, 253, 13, 52, 218, 18, 186, 4, 18, 245, 36, 219, 55, 127, 69, 73, 95, 167, 5, 5, 178, 17, 233, 233, 34, 30, 215, 243, 71, 37, 39, 245, 66, 63, 35, 252, 36, 8, 86, 226, 13, 205, 64, 218, 202, 80, 220, 43, 249, 231, 192, 223, 51, 86, 247, 247, 12, 174, 54, 219, 190, 34, 66, 7, 98, 17, 86, 8, 127, 48, 4, 29, 129, 242, 255, 5, 232, 24, 230, 28, 22, 229, 161, 32, 206, 11, 19, 71, 30, 228, 239, 207, 248, 15, 3, 31, 8, 250, 228, 16, 229, 244, 227, 25, 228, 219, 15, 222, 183, 12, 107, 212, 204, 223, 228, 5, 190, 238, 221, 248, 39, 1, 235, 196, 207, 39, 172, 107, 72, 214, 59, 48, 231, 75, 212, 225, 34, 21, 22, 216, 33, 21, 11, 221, 9, 53, 13, 5, 218, 36, 4, 79, 58, 251, 127, 254, 241, 245, 227, 243, 11, 251, 54, 242, 98, 246, 36, 212, 53, 253, 247, 37, 72, 223, 246, 233, 59, 240, 5, 8, 190, 240, 238, 238, 235, 59, 43, 244, 44, 136, 10, 106, 227, 232, 197, 232, 230, 236, 10, 58, 110, 245, 67, 248, 40, 4, 6, 180, 56, 220, 56, 15, 203, 228, 68, 193, 61, 41, 57, 171, 7, 183, 248, 234, 37, 241, 221, 33, 5, 7, 216, 174, 14, 251, 0, 14, 254, 227, 44, 205, 252, 57, 55, 251, 209, 198, 246, 40, 27, 244, 15, 44, 213, 27, 46, 102, 220, 219, 26, 32, 129, 52, 226, 233, 13, 176, 19, 188, 51, 35, 21, 235, 29, 98, 60, 221, 173, 10, 242, 218, 233, 12, 27, 20, 232, 8, 232, 237, 206, 46, 16, 32, 212, 45, 32, 219, 22, 10, 253, 129, 59, 80, 146, 212, 7, 242, 243, 147, 13, 85, 16, 213, 254, 1, 249, 59, 12, 17, 230, 250, 237, 62, 199, 15, 9, 215, 240, 6, 129, 7, 180, 192, 1, 68, 219, 20, 205, 8, 129, 35, 217, 23, 238, 189, 232, 219, 23, 242, 19, 248, 42, 69, 31, 37, 161, 200, 211, 222, 29, 70, 4, 231, 43, 32, 253, 85, 85, 226, 216, 223, 2, 19, 211, 31, 20, 212, 230, 213, 232, 209, 163, 59, 16, 24, 61, 228, 210, 10, 224, 8, 237, 33, 180, 244, 236, 196, 72, 239, 13, 127, 15, 17, 2, 229, 51, 30, 252, 26, 32, 180, 80, 253, 254, 42, 235, 37, 10, 54, 237, 51, 237, 251, 113, 0, 6, 6, 236, 232, 233, 39, 69, 244, 38, 200, 67, 16, 17, 75, 228, 175, 6, 160, 15, 50, 192, 100, 228, 109, 15, 215, 14, 3, 87, 51, 199, 49, 37, 43, 230, 69, 72, 21, 248, 21, 20, 7, 50, 21, 236, 0, 242, 17, 237, 64, 129, 241, 9, 8, 37, 20, 246, 242, 240, 1, 0, 15, 198, 1, 6, 20, 218, 35, 223, 254, 195, 90, 239, 206, 45, 244, 6, 229, 227, 252, 25, 15, 213, 75, 229, 219, 54, 207, 231, 255, 220, 8, 216, 0, 11, 91, 65, 34, 68, 18, 51, 20, 217, 134, 4, 0, 232, 231, 43, 15, 123, 14, 110, 200, 57, 141, 71, 213, 176, 143, 188, 2, 79, 69, 216, 181, 129, 212, 15, 80, 227, 8, 242, 127, 24, 220, 40, 88, 106, 22, 226, 169, 42, 235, 45, 33, 49, 125, 51, 150, 58, 35, 176, 1, 184, 78, 198, 184, 2, 6, 118, 188, 67, 168, 44, 43, 228, 2, 5, 227, 64, 35, 213, 12, 34, 16, 40, 108, 208, 55, 60, 245, 23, 133, 236, 53, 36, 224, 233, 219, 13, 144, 242, 241, 9, 10, 11, 38, 38, 233, 129, 175, 0, 131, 60, 14, 32, 225, 232, 214, 235, 27, 204, 28, 33, 255, 223, 241, 49, 216, 235, 237, 234, 99, 234, 169, 33, 255, 232, 248, 240, 13, 212, 148, 23, 193, 19, 22, 72, 34, 109, 249, 247, 182, 7, 184, 25, 237, 250, 77, 82, 82, 82, 215, 230, 47, 33, 38, 176, 233, 154, 102, 253, 169, 183, 127, 230, 226, 240, 210, 253, 47, 86, 63, 78, 231, 134, 110, 60, 39, 95, 36, 60, 52, 223, 243, 183, 6, 31, 159, 223, 231, 236, 211, 224, 22, 214, 236, 41, 242, 249, 127, 100, 221, 206, 83, 223, 206, 12, 45, 13, 10, 169, 42, 26, 229, 242, 248, 49, 241, 213, 207, 32, 47, 20, 83, 45, 207, 159, 7, 233, 100, 8, 1, 86, 7, 54, 248, 59, 18, 186, 84, 29, 178, 32, 31, 35, 74, 234, 177, 234, 30, 28, 236, 72, 1, 71, 105, 198, 183, 250, 129, 227, 39, 218, 255, 51, 53, 45, 159, 218, 21, 16, 145, 24, 232, 177, 38, 45, 37, 43, 209, 68, 9, 253, 205, 197, 50, 131, 42, 205, 39, 44, 81, 184, 202, 133, 38, 213, 223, 8, 34, 63, 240, 219, 25, 223, 82, 35, 30, 16, 29, 193, 10, 42, 59, 36, 223, 74, 19, 62, 176, 214, 233, 50, 8, 69, 49, 240, 214, 47, 226, 17, 225, 10, 206, 5, 184, 242, 247, 134, 43, 26, 42, 1, 71, 248, 223, 3, 3, 238, 254, 210, 76, 214, 198, 217, 38, 186, 234, 212, 1, 227, 230, 63, 15, 25, 2, 198, 103, 33, 36, 244, 36, 38, 127, 35, 226, 186, 206, 44, 12, 30, 7, 239, 210, 235, 12, 197, 134, 194, 24, 218, 63, 51, 127, 67, 36, 206, 5, 254, 57, 39, 57, 232, 247, 233, 251, 2, 158, 251, 223, 25, 198, 34, 30, 15, 200, 2, 244, 40, 249, 211, 198, 38, 210, 0, 242, 240, 41, 244, 239, 25, 52, 207, 3, 7, 7, 76, 228, 234, 239, 7, 73, 230, 8, 57, 202, 209, 82, 226, 218, 230, 195, 249, 55, 58, 16, 107, 161, 11, 193, 33, 248, 23, 248, 164, 251, 39, 26, 140, 5, 226, 184, 209, 251, 23, 232, 160, 5, 135, 127, 42, 232, 15, 111, 249, 33, 181, 29, 56, 20, 177, 76, 23, 218, 222, 58, 206, 246, 137, 57, 195, 255, 212, 149, 11, 238, 2, 43, 53, 107, 13, 4, 28, 223, 101, 206, 50, 54, 248, 20, 29, 51, 39, 127, 179, 35, 199, 242, 182, 29, 69, 148, 11, 223, 240, 254, 233, 22, 18, 186, 250, 25, 103, 30, 252, 39, 44, 211, 216, 18, 218, 1, 230, 32, 243, 206, 38, 206, 13, 194, 211, 9, 42, 15, 84, 229, 62, 36, 24, 25, 0, 211, 44, 41, 232, 46, 221, 190, 224, 210, 68, 251, 19, 19, 53, 193, 31, 8, 75, 242, 9, 129, 237, 218, 212, 239, 231, 22, 32, 19, 242, 52, 227, 62, 218, 25, 234, 252, 232, 4, 19, 42, 53, 205, 210, 191, 215, 211, 54, 49, 31, 30, 231, 219, 29, 51, 55, 30, 199, 224, 217, 237, 12, 14, 192, 70, 64, 233, 9, 10, 246, 23, 4, 231, 186, 71, 196, 244, 16, 1, 210, 47, 157, 36, 19, 250, 226, 3, 31, 251, 216, 232, 30, 253, 127, 229, 207, 196, 36, 222, 229, 69, 73, 246, 214, 235, 200, 19, 8, 194, 4, 213, 227, 197, 27, 230, 5, 13, 219, 204, 222, 246, 44, 34, 25, 40, 248, 65, 4, 208, 36, 26, 234, 35, 245, 235, 20, 61, 56, 212, 48, 169, 237, 196, 52, 183, 216, 251, 233, 250, 188, 19, 32, 12, 181, 25, 44, 120, 223, 185, 250, 38, 240, 177, 152, 1, 230, 212, 30, 28, 248, 193, 218, 13, 129, 200, 11, 204, 247, 208, 43, 10, 5, 51, 214, 47, 35, 4, 241, 26, 228, 5, 24, 241, 252, 5, 177, 230, 255, 245, 247, 235, 37, 18, 117, 239, 238, 107, 19, 33, 57, 248, 129, 5, 219, 252, 253, 201, 11, 38, 231, 7, 155, 209, 35, 54, 207, 28, 15, 250, 215, 218, 27, 247, 10, 27, 236, 219, 28, 76, 238, 251, 22, 26, 253, 6, 5, 231, 34, 1, 182, 233, 247, 202, 56, 67, 244, 23, 19, 246, 244, 195, 192, 213, 1, 88, 231, 227, 100, 187, 80, 65, 255, 204, 42, 202, 136, 7, 233, 236, 36, 49, 28, 69, 14, 18, 200, 223, 11, 84, 165, 241, 27, 21, 251, 215, 3, 16, 124, 28, 172, 217, 182, 33, 254, 47, 49, 60, 240, 217, 9, 231, 252, 72, 196, 98, 246, 129, 44, 0, 246, 199, 23, 20, 33, 213, 231, 232, 37, 223, 19, 8, 0, 9, 45, 237, 18, 217, 229, 249, 28, 244, 18, 197, 238, 41, 44, 253, 35, 54, 51, 245, 22, 249, 229, 9, 18, 239, 252, 15, 32, 253, 192, 217, 217, 40, 11, 234, 127, 238, 26, 220, 204, 233, 2, 3, 44, 39, 243, 14, 15, 37, 16, 55, 29, 4, 48, 31, 213, 225, 233, 13, 35, 192, 233, 44, 236, 23, 48, 253, 64, 228, 200, 231, 239, 240, 218, 199, 231, 127, 24, 217, 39, 1, 0, 179, 254, 212, 226, 238, 167, 72, 30, 245, 216, 234, 235, 8, 239, 242, 12, 43, 66, 225, 69, 174, 187, 75, 164, 28, 15, 251, 88, 75, 254, 40, 0, 195, 52, 238, 46, 213, 74, 26, 35, 251, 84, 244, 20, 60, 234, 1, 212, 137, 248, 2, 35, 15, 71, 32, 14, 41, 10, 248, 10, 23, 12, 58, 48, 24, 47, 225, 34, 196, 29, 251, 142, 62, 38, 240, 198, 195, 36, 222, 204, 129, 61, 240, 216, 197, 239, 239, 14, 249, 90, 11, 212, 159, 37, 11, 239, 255, 7, 37, 47, 240, 58, 243, 191, 179, 243, 228, 1, 233, 234, 24, 23, 228, 37, 220, 7, 223, 35, 206, 242, 25, 228, 26, 237, 247, 36, 212, 255, 48, 206, 247, 20, 75, 233, 224, 244, 242, 255, 44, 193, 202, 226, 253, 243, 17, 127, 64, 32, 195, 171, 208, 249, 236, 2, 248, 227, 238, 203, 11, 19, 15, 72, 200, 90, 220, 48, 240, 165, 216, 219, 249, 23, 251, 22, 244, 61, 211, 235, 215, 196, 189, 9, 129, 229, 223, 225, 66, 60, 102, 15, 30, 23, 229, 236, 60, 180, 21, 193, 217, 224, 174, 19, 95, 2, 186, 210, 249, 226, 19, 65, 103, 41, 6, 199, 255, 240, 54, 245, 95, 209, 230, 170, 221, 229, 33, 34, 51, 31, 4, 206, 238, 215, 209, 2, 201, 253, 3, 11, 238, 28, 11, 33, 188, 238, 18, 1, 193, 197, 129, 224, 8, 4, 11, 48, 59, 206, 185, 207, 21, 210, 46, 24, 12, 48, 1, 24, 38, 7, 194, 214, 183, 233, 29, 24, 40, 34, 32, 19, 3, 250, 255, 76, 242, 18, 19, 153, 242, 42, 1, 56, 14, 227, 39, 170, 43, 67, 235, 221, 39, 54, 224, 127, 241, 182, 215, 44, 61, 28, 247, 130, 87, 255, 42, 118, 241, 89, 30, 220, 3, 214, 245, 118, 17, 233, 145, 252, 177, 183, 59, 104, 157, 14, 18, 59, 247, 228, 246, 36, 29, 25, 61, 68, 43, 68, 110, 93, 245, 154, 6, 48, 224, 77, 85, 47, 0, 48, 222, 234, 34, 235, 196, 240, 10, 232, 179, 43, 177, 10, 8, 24, 250, 127, 179, 246, 198, 204, 233, 5, 0, 45, 96, 112, 94, 219, 249, 25, 102, 208, 8, 234, 244, 182, 191, 0, 73, 90, 9, 202, 228, 238, 34, 13, 4, 67, 203, 64, 224, 238, 30, 78, 54, 225, 127, 203, 189, 213, 241, 51, 227, 18, 32, 233, 241, 252, 16, 19, 255, 37, 12, 19, 15, 23, 39, 28, 222, 244, 247, 252, 6, 4, 223, 235, 47, 37, 254, 27, 5, 215, 213, 127, 249, 234, 217, 213, 19, 208, 16, 10, 27, 245, 249, 5, 65, 240, 253, 16, 247, 13, 193, 14, 51, 228, 202, 68, 15, 56, 32, 238, 244, 33, 17, 24, 29, 22, 19, 232, 129, 68, 248, 228, 227, 28, 223, 237, 53, 221, 175, 180, 67, 244, 20, 240, 67, 241, 243, 40, 242, 19, 184, 160, 30, 87, 220, 26, 168, 60, 79, 4, 3, 88, 46, 7, 210, 240, 42, 31, 254, 66, 204, 51, 3, 31, 14, 174, 211, 79, 183, 240, 218, 46, 42, 56, 44, 10, 45, 46, 189, 182, 3, 9, 205, 8, 235, 34, 14, 87, 191, 3, 235, 197, 210, 232, 245, 8, 179, 18, 252, 12, 197, 35, 37, 10, 246, 29, 229, 217, 254, 189, 70, 238, 19, 171, 51, 8, 33, 237, 90, 82, 176, 16, 250, 14, 8, 68, 127, 12, 53, 160, 52, 8, 247, 190, 26, 225, 65, 8, 222, 0, 32, 209, 73, 116, 193, 30, 250, 211, 194, 48, 166, 185, 28, 218, 19, 28, 199, 105, 231, 137, 12, 242, 206, 219, 249, 218, 10, 213, 25, 202, 25, 211, 219, 4, 33, 171, 108, 246, 69, 242, 242, 9, 16, 248, 200, 129, 75, 224, 6, 30, 14, 53, 228, 155, 59, 187, 186, 4, 3, 17, 127, 181, 252, 39, 32, 222, 117, 27, 191, 43, 64, 200, 219, 228, 190, 227, 234, 179, 8, 28, 51, 50, 234, 0, 168, 99, 176, 158, 211, 122, 254, 215, 9, 54, 252, 9, 18, 182, 250, 48, 47, 146, 216, 101, 187, 214, 59, 129, 9, 189, 195, 24, 184, 213, 244, 49, 216, 250, 58, 165, 104, 35, 243, 67, 126, 0, 12, 227, 4, 251, 16, 0, 239, 235, 247, 254, 31, 217, 63, 254, 245, 104, 189, 1, 127, 40, 225, 29, 16, 147, 230, 249, 44, 0, 253, 19, 15, 30, 28, 2, 40, 65, 253, 197, 253, 11, 23, 37, 2, 234, 8, 5, 43, 26, 249, 238, 53, 235, 0, 250, 52, 250, 223, 217, 233, 194, 26, 233, 44, 31, 4, 58, 240, 210, 235, 62, 1, 235, 32, 194, 207, 226, 1, 224, 35, 127, 13, 64, 74, 25, 181, 75, 246, 194, 207, 234, 84, 166, 168, 9, 218, 194, 218, 232, 34, 184, 75, 220, 104, 31, 27, 17, 191, 48, 223, 77, 87, 246, 250, 34, 237, 7, 54, 251, 33, 61, 210, 226, 234, 251, 12, 168, 223, 253, 181, 55, 17, 34, 203, 42, 2, 254, 237, 2, 254, 31, 252, 12, 236, 254, 174, 21, 207, 254, 232, 13, 223, 13, 23, 246, 186, 185, 48, 50, 50, 233, 127, 37, 195, 91, 29, 242, 165, 248, 68, 193, 238, 217, 243, 31, 225, 31, 66, 187, 220, 15, 191, 242, 21, 179, 240, 100, 198, 58, 85, 208, 27, 14, 195, 2, 22, 23, 247, 231, 235, 39, 244, 60, 245, 64, 8, 46, 29, 59, 203, 253, 147, 212, 215, 229, 240, 91, 66, 27, 217, 234, 63, 61, 33, 1, 55, 103, 200, 127, 31, 42, 224, 38, 238, 209, 251, 32, 252, 40, 214, 7, 39, 152, 214, 13, 201, 251, 48, 30, 62, 52, 173, 36, 39, 212, 208, 49, 253, 231, 8, 189, 9, 251, 66, 245, 11, 228, 248, 240, 32, 41, 15, 24, 8, 107, 175, 222, 12, 119, 218, 68, 215, 205, 242, 231, 39, 239, 59, 175, 49, 237, 251, 174, 51, 21, 251, 32, 50, 241, 207, 211, 53, 98, 53, 67, 108, 4, 236, 252, 185, 12, 36, 15, 228, 48, 22, 250, 53, 129, 252, 248, 184, 62, 27, 60, 141, 76, 47, 211, 239, 161, 189, 43, 207, 16, 228, 98, 198, 28, 132, 80, 58, 129, 191, 133, 198, 255, 187, 203, 6, 218, 11, 250, 62, 181, 228, 43, 53, 170, 206, 233, 104, 204, 187, 5, 88, 11, 155, 217, 180, 11, 100, 22, 68, 70, 206, 205, 42, 15, 235, 207, 37, 113, 45, 192, 5, 192, 121, 115, 186, 76, 213, 75, 16, 187, 157, 237, 237, 35, 205, 233, 252, 63, 175, 1, 255, 16, 135, 86, 159, 222, 129, 180, 111, 111, 99, 39, 27, 61, 231, 25, 71, 231, 238, 175, 15, 158, 154, 245, 92, 17, 160, 212, 181, 230, 223, 71, 46, 82, 213, 225, 31, 63, 35, 71, 101, 9, 81, 254, 228, 226, 54, 193, 71, 53, 102, 209, 172, 189, 198, 27, 186, 78, 45, 21, 180, 59, 85, 61, 205, 227, 232, 202, 218, 201, 17, 188, 225, 64, 78, 55, 43, 196, 176, 169, 47, 202, 255, 233, 238, 68, 202, 253, 249, 11, 55, 190, 200, 250, 233, 237, 249, 22, 204, 191, 195, 129, 54, 101, 37, 243, 57, 12, 172, 12, 63, 233, 28, 127, 31, 14, 241, 200, 228, 254, 198, 225, 0, 17, 214, 0, 47, 67, 233, 196, 228, 219, 204, 200, 169, 15, 14, 7, 26, 60, 19, 21, 152, 215, 7, 191, 27, 250, 219, 3, 238, 77, 65, 29, 253, 204, 252, 244, 33, 253, 33, 86, 163, 25, 230, 194, 55, 250, 235, 36, 70, 216, 8, 249, 30, 255, 196, 232, 204, 80, 9, 211, 230, 218, 99, 215, 213, 88, 207, 83, 249, 224, 249, 125, 247, 201, 48, 19, 33, 215, 254, 248, 234, 31, 10, 17, 15, 232, 20, 247, 245, 23, 127, 185, 234, 31, 58, 20, 26, 178, 221, 239, 195, 237, 86, 215, 110, 49, 188, 1, 191, 139, 84, 182, 226, 235, 180, 12, 215, 71, 51, 231, 12, 188, 196, 6, 31, 184, 250, 181, 209, 35, 21, 0, 50, 118, 60, 36, 10, 167, 15, 71, 46, 208, 28, 25, 158, 236, 221, 28, 56, 65, 145, 150, 171, 217, 254, 201, 45, 59, 69, 65, 240, 234, 31, 69, 219, 3, 221, 104, 127, 134, 110, 237, 200, 17, 59, 180, 90, 49, 251, 59, 129, 215, 72, 33, 14, 186, 34, 40, 240, 221, 30, 237, 23, 22, 35, 202, 33, 52, 74, 9, 46, 192, 44, 38, 93, 49, 155, 230, 227, 186, 238, 233, 252, 51, 249, 33, 20, 112, 3, 8, 179, 56, 134, 23, 88, 224, 20, 30, 12, 168, 191, 215, 243, 87, 219, 249, 29, 8, 239, 209, 223, 10, 208, 5, 248, 21, 32, 13, 212, 255, 205, 157, 216, 61, 89, 47, 22, 230, 165, 29, 14, 248, 237, 17, 229, 162, 248, 207, 231, 194, 78, 61, 64, 54, 39, 224, 237, 3, 18, 207, 247, 42, 22, 207, 214, 246, 231, 62, 251, 129, 32, 169, 44, 250, 183, 78, 52, 234, 196, 44, 33, 242, 90, 200, 77, 235, 205, 1, 239, 47, 214, 26, 53, 205, 210, 193, 161, 223, 21, 14, 29, 108, 0, 91, 84, 69, 180, 71, 79, 132, 170, 205, 228, 129, 35, 40, 39, 59, 17, 239, 6, 49, 38, 198, 81, 35, 239, 222, 228, 35, 75, 65, 253, 232, 248, 6, 60, 28, 80, 47, 207, 35, 196, 229, 44, 13, 3, 240, 14, 211, 192, 51, 226, 12, 60, 72, 203, 92, 50, 233, 182, 242, 254, 225, 38, 249, 249, 21, 46, 100, 26, 12, 211, 16, 214, 211, 242, 33, 234, 55, 31, 198, 222, 36, 201, 221, 250, 0, 61, 254, 56, 25, 40, 208, 24, 218, 230, 129, 240, 45, 227, 47, 23, 54, 6, 229, 2, 237, 57, 249, 20, 192, 21, 202, 222, 236, 223, 20, 12, 19, 103, 249, 73, 149, 251, 4, 173, 174, 16, 22, 181, 80, 166, 148, 202, 17, 211, 213, 243, 7, 66, 239, 240, 164, 37, 206, 58, 233, 236, 254, 65, 251, 64, 51, 33, 225, 203, 68, 240, 229, 69, 33, 55, 199, 250, 158, 199, 0, 20, 202, 91, 133, 226, 129, 113, 208, 27, 235, 254, 126, 14, 236, 177, 12, 176, 184, 29, 245, 21, 27, 229, 253, 77, 65, 14, 50, 246, 44, 237, 238, 186, 178, 214, 63, 45, 49, 36, 189, 49, 68, 2, 154, 31, 75, 33, 194, 30, 152, 213, 129, 211, 21, 77, 101, 254, 187, 211, 204, 242, 21, 75, 233, 244, 57, 23, 162, 36, 8, 25, 177, 248, 192, 2, 221, 225, 1, 12, 251, 3, 157, 218, 46, 236, 19, 144, 26, 127, 43, 245, 7, 72, 0, 219, 211, 50, 150, 72, 64, 26, 210, 255, 255, 36, 179, 247, 226, 245, 232, 150, 218, 23, 20, 189, 26, 15, 16, 40, 22, 46, 71, 248, 222, 33, 203, 127, 0, 207, 70, 66, 235, 161, 207, 53, 238, 201, 243, 31, 16, 2, 218, 46, 58, 254, 235, 236, 190, 182, 246, 5, 186, 47, 1, 31, 30, 76, 58, 233, 232, 0, 255, 194, 190, 31, 212, 247, 228, 3, 39, 225, 219, 215, 203, 9, 196, 127, 31, 13, 104, 210, 39, 49, 17, 14, 221, 253, 32, 43, 26, 42, 32, 26, 250, 242, 227, 30, 251, 0, 233, 68, 168, 236, 48, 46, 28, 12, 233, 161, 66, 49, 15, 239, 220, 24, 134, 170, 6, 98, 247, 47, 75, 37, 12, 195, 49, 188, 106, 83, 253, 24, 211, 243, 234, 157, 248, 68, 114, 229, 212, 227, 2, 33, 17, 49, 10, 238, 31, 70, 1, 230, 127, 103, 177, 71, 162, 48, 116, 224, 155, 185, 240, 224, 20, 172, 202, 34, 59, 40, 50, 165, 80, 2, 68, 81, 157, 146, 42, 157, 12, 16, 251, 194, 82, 237, 16, 247, 236, 219, 7, 185, 251, 208, 165, 23, 55, 91, 36, 60, 234, 188, 45, 74, 196, 213, 208, 93, 191, 253, 29, 71, 14, 240, 191, 229, 192, 247, 20, 39, 101, 192, 244, 233, 250, 214, 98, 127, 14, 23, 207, 179, 241, 61, 86, 222, 15, 42, 254, 190, 255, 201, 90, 14, 61, 2, 18, 129, 37, 144, 14, 180, 20, 185, 213, 3, 213, 242, 173, 74, 74, 115, 99, 96, 211, 22, 27, 67, 220, 240, 11, 49, 226, 204, 178, 72, 39, 249, 213, 210, 218, 61, 230, 1, 50, 201, 250, 25, 68, 49, 40, 18, 242, 54, 212, 188, 254, 23, 72, 146, 41, 247, 53, 175, 226, 243, 68, 33, 252, 243, 237, 234, 24, 215, 41, 16, 37, 218, 35, 58, 233, 158, 13, 17, 43, 19, 244, 52, 68, 225, 48, 194, 72, 208, 241, 57, 6, 248, 231, 17, 24, 245, 40, 206, 246, 226, 10, 242, 34, 25, 223, 17, 127, 229, 22, 42, 54, 10, 30, 214, 11, 236, 255, 61, 6, 230, 170, 240, 244, 13, 5, 2, 20, 231, 120, 213, 20, 25, 12, 223, 51, 204, 129, 240, 154, 219, 33, 3, 32, 65, 36, 6, 196, 221, 179, 55, 204, 96, 5, 254, 53, 179, 16, 23, 68, 14, 217, 248, 245, 19, 21, 1, 21, 14, 47, 181, 198, 106, 31, 18, 209, 26, 218, 207, 1, 205, 20, 218, 47, 246, 237, 41, 236, 186, 249, 81, 39, 16, 20, 171, 82, 220, 14, 252, 59, 234, 164, 204, 220, 54, 149, 26, 33, 66, 9, 69, 226, 229, 30, 85, 192, 36, 121, 233, 3, 238, 24, 228, 70, 214, 150, 93, 129, 250, 213, 129, 48, 75, 17, 146, 72, 226, 47, 54, 221, 47, 177, 228, 3, 127, 254, 249, 37, 217, 23, 175, 212, 227, 7, 237, 251, 250, 246, 222, 35, 16, 10, 205, 172, 235, 255, 192, 244, 199, 220, 238, 49, 31, 22, 21, 27, 214, 252, 244, 200, 13, 34, 26, 3, 234, 14, 41, 225, 224, 199, 195, 220, 18, 240, 9, 43, 11, 226, 71, 235, 194, 252, 34, 6, 11, 3, 249, 238, 19, 192, 62, 31, 166, 254, 23, 14, 233, 197, 248, 198, 199, 40, 8, 218, 233, 94, 71, 57, 238, 233, 0, 219, 67, 52, 31, 239, 30, 31, 218, 36, 25, 221, 8, 9, 53, 129, 13, 56, 234, 23, 47, 228, 6, 221, 246, 95, 228, 219, 58, 251, 75, 196, 248, 204, 30, 236, 4, 0, 103, 24, 27, 20, 62, 19, 198, 38, 65, 235, 245, 19, 50, 240, 236, 16, 226, 242, 23, 230, 129, 25, 177, 13, 184, 41, 21, 198, 168, 248, 78, 80, 77, 244, 35, 233, 223, 4, 4, 244, 210, 215, 51, 231, 197, 187, 245, 228, 239, 91, 82, 23, 196, 249, 196, 46, 199, 214, 254, 74, 213, 93, 83, 87, 42, 46, 199, 5, 240, 28, 249, 65, 166, 87, 229, 228, 200, 208, 241, 236, 34, 228, 0, 81, 57, 220, 4, 50, 243, 55, 242, 0, 214, 248, 41, 180, 66, 16, 231, 253, 199, 53, 52, 200, 63, 236, 39, 183, 88, 22, 34, 74, 10, 232, 28, 233, 227, 217, 19, 11, 127, 250, 220, 30, 180, 213, 67, 21, 9, 238, 155, 79, 33, 4, 12, 43, 206, 34, 64, 229, 16, 175, 224, 234, 46, 4, 28, 127, 114, 22, 55, 239, 206, 10, 169, 196, 2, 248, 12, 254, 15, 244, 229, 241, 253, 213, 1, 227, 20, 134, 53, 53, 169, 255, 53, 32, 62, 205, 167, 24, 254, 76, 34, 4, 249, 216, 69, 197, 242, 235, 254, 218, 59, 29, 207, 11, 19, 53, 235, 55, 21, 34, 232, 225, 175, 23, 129, 16, 15, 241, 247, 13, 177, 30, 61, 178, 225, 22, 215, 232, 175, 235, 80, 71, 55, 58, 44, 244, 215, 31, 0, 251, 246, 199, 17, 5, 237, 218, 53, 217, 179, 221, 231, 236, 4, 96, 217, 80, 227, 178, 69, 238, 235, 1, 3, 60, 84, 7, 14, 0, 244, 11, 187, 18, 96, 190, 8, 177, 196, 33, 192, 194, 242, 245, 203, 23, 168, 226, 11, 149, 225, 57, 8, 103, 26, 238, 22, 3, 3, 202, 127, 212, 10, 196, 7, 195, 204, 205, 25, 247, 245, 31, 23, 34, 234, 78, 32, 35, 182, 192, 227, 35, 16, 245, 183, 235, 157, 143, 41, 132, 244, 29, 234, 73, 65, 48, 188, 19, 34, 40, 254, 225, 203, 6, 190, 212, 199, 7, 51, 240, 3, 19, 30, 201, 234, 81, 205, 9, 241, 202, 28, 247, 38, 222, 232, 217, 225, 41, 43, 207, 253, 211, 23, 198, 206, 207, 40, 18, 219, 252, 159, 64, 23, 1, 127, 237, 48, 250, 254, 244, 212, 225, 31, 18, 16, 196, 211, 45, 243, 12, 238, 61, 3, 170, 10, 255, 35, 0, 8, 222, 238, 10, 211, 238, 216, 45, 24, 12, 183, 224, 6, 193, 203, 18, 28, 81, 67, 245, 55, 254, 247, 2, 31, 208, 241, 29, 239, 11, 229, 236, 229, 30, 211, 12, 66, 218, 242, 39, 129, 17, 254, 239, 41, 37, 10, 41, 254, 4, 54, 229, 14, 215, 201, 50, 15, 204, 18, 216, 36, 216, 195, 191, 189, 250, 13, 31, 12, 52, 8, 246, 22, 59, 180, 235, 194, 18, 254, 236, 86, 243, 3, 56, 5, 165, 222, 31, 54, 209, 55, 175, 39, 5, 245, 255, 248, 127, 231, 195, 243, 20, 26, 204, 227, 49, 79, 53, 219, 153, 13, 201, 34, 169, 255, 243, 166, 40, 81, 245, 225, 19, 228, 31, 199, 235, 212, 39, 210, 3, 204, 29, 233, 7, 129, 247, 243, 179, 171, 36, 209, 212, 239, 231, 27, 220, 78, 21, 253, 247, 252, 253, 42, 229, 191, 137, 54, 31, 215, 205, 74, 213, 226, 29, 201, 217, 0, 54, 38, 9, 234, 142, 90, 215, 214, 29, 38, 60, 90, 231, 231, 149, 184, 87, 41, 19, 208, 235, 254, 202, 221, 10, 17, 193, 202, 67, 23, 44, 217, 18, 32, 83, 28, 235, 201, 6, 17, 148, 238, 231, 13, 137, 196, 25, 251, 233, 59, 253, 123, 228, 230, 211, 44, 13, 42, 95, 56, 202, 201, 211, 48, 235, 127, 27, 114, 227, 150, 18, 236, 179, 117, 187, 164, 203, 206, 81, 46, 23, 232, 82, 218, 102, 109, 177, 147, 203, 197, 1, 176, 30, 69, 38, 253, 43, 247, 41, 186, 45, 204, 247, 239, 224, 47, 79, 31, 244, 215, 221, 0, 28, 68, 198, 60, 204, 34, 239, 42, 126, 46, 75, 1, 129, 246, 85, 179, 238, 32, 245, 60, 44, 218, 253, 19, 236, 8, 190, 30, 202, 219, 69, 47, 3, 251, 34, 19, 155, 196, 242, 8, 71, 116, 47, 40, 127, 170, 45, 159, 248, 200, 63, 206, 228, 237, 153, 214, 227, 2, 36, 43, 41, 82, 216, 221, 179, 44, 4, 32, 55, 40, 225, 164, 14, 0, 43, 51, 192, 234, 144, 226, 18, 220, 36, 6, 19, 207, 206, 56, 73, 36, 3, 33, 226, 246, 249, 1, 234, 29, 248, 232, 202, 13, 184, 235, 245, 251, 26, 23, 100, 62, 39, 95, 92, 239, 190, 18, 129, 216, 230, 12, 226, 10, 9, 28, 15, 216, 187, 25, 230, 8, 185, 75, 2, 9, 11, 22, 207, 90, 222, 23, 132, 239, 46, 87, 193, 112, 4, 46, 245, 225, 212, 3, 234, 248, 215, 2, 165, 171, 62, 181, 99, 234, 222, 183, 33, 57, 1, 215, 198, 229, 241, 242, 35, 50, 6, 251, 197, 23, 203, 223, 233, 255, 235, 234, 226, 78, 44, 78, 32, 200, 72, 232, 239, 213, 89, 61, 206, 16, 2, 200, 251, 30, 219, 28, 238, 162, 1, 44, 3, 10, 127, 25, 190, 247, 61, 233, 227, 68, 208, 51, 0, 236, 252, 240, 4, 1, 127, 9, 19, 91, 183, 221, 221, 192, 207, 116, 221, 13, 56, 8, 57, 239, 42, 12, 65, 193, 245, 29, 163, 49, 249, 242, 26, 217, 236, 229, 211, 224, 221, 50, 194, 21, 5, 20, 237, 10, 184, 203, 149, 8, 84, 247, 244, 22, 241, 151, 245, 57, 173, 12, 93, 221, 47, 234, 225, 106, 35, 245, 237, 18, 62, 207, 76, 209, 37, 8, 0, 7, 6, 7, 239, 9, 2, 2, 229, 16, 236, 201, 65, 26, 205, 217, 245, 36, 249, 59, 242, 50, 38, 10, 239, 233, 53, 220, 191, 40, 38, 13, 7, 237, 0, 4, 26, 236, 230, 216, 7, 215, 15, 38, 168, 115, 53, 184, 253, 233, 32, 127, 229, 251, 181, 243, 221, 74, 40, 36, 3, 127, 228, 246, 228, 209, 3, 245, 36, 226, 16, 20, 53, 7, 204, 226, 42, 219, 71, 39, 32, 85, 75, 248, 87, 250, 212, 16, 93, 237, 224, 37, 143, 201, 203, 26, 234, 90, 33, 138, 43, 254, 205, 241, 247, 47, 4, 228, 26, 101, 25, 31, 61, 62, 114, 243, 19, 251, 166, 19, 190, 236, 3, 92, 35, 160, 235, 206, 232, 207, 19, 230, 18, 42, 202, 18, 60, 47, 36, 221, 129, 231, 212, 249, 234, 211, 34, 253, 206, 90, 234, 32, 248, 81, 45, 47, 109, 229, 254, 235, 1, 206, 49, 235, 248, 242, 185, 214, 229, 180, 28, 177, 235, 63, 32, 157, 81, 3, 247, 224, 220, 223, 36, 179, 45, 98, 71, 9, 251, 113, 206, 175, 6, 3, 191, 27, 240, 0, 10, 127, 39, 80, 53, 45, 220, 221, 232, 43, 30, 235, 6, 199, 25, 226, 32, 2, 28, 204, 242, 37, 198, 204, 86, 18, 236, 210, 229, 51, 195, 0, 21, 41, 242, 233, 1, 44, 72, 203, 208, 78, 45, 8, 225, 224, 216, 204, 119, 60, 15, 222, 233, 248, 222, 168, 231, 237, 15, 253, 19, 237, 108, 223, 23, 28, 25, 228, 214, 147, 177, 253, 175, 1, 6, 59, 31, 13, 188, 251, 145, 234, 247, 57, 192, 216,